{"</s>": 0, "<unk>": 1, ",": 2, "\u2581the": 3, "\u2581of": 4, ".": 5, "\u2581and": 6, "\u2581": 7, "\u2581to": 8, "\u3002": 9, "\u2581in": 10, "\u7684": 11, "\u2581a": 12, "\u3001": 13, "\u2581for": 14, "-": 15, "\u548c": 16, ")": 17, "\u2581on": 18, "\u2581that": 19, "\u2581(": 20, "'": 21, "s": 22, "?": 23, "\u2581The": 24, ";": 25, "\u2581I": 26, "\u2581with": 27, "\u2581-": 28, "\u2581by": 29, "\u2581is": 30, "\u5e74": 31, "\u2581be": 32, "\u2581as": 33, "(": 34, ":": 35, "\u5728": 36, "\u2581you": 37, "\u2581\"": 38, "\u2581it": 39, "/": 40, "\u6708": 41, "\u2581was": 42, "\u2581its": 43, "\u2581are": 44, "\u2581United": 45, "\u2581at": 46, "\u300b": 47, "!": 48, "\u2581from": 49, "\u2581or": 50, "\u300a": 51, "\u2581Nations": 52, "\u2581have": 53, "\u2581not": 54, "\u4e86": 55, "\u2581this": 56, "\u2581an": 57, "\u2581all": 58, "t": 59, "\u2581which": 60, "\u2581their": 61, "\u2581Committee": 62, "\u5bf9": 63, "\u2581has": 64, "\u4e0e": 65, "\u2581In": 66, "\u2581States": 67, "...": 68, "\u662f": 69, "\u6216": 70, "\u2581international": 71, "\u2581been": 72, "\u2581will": 73, "\u4e3a": 74, "\u65e5": 75, "\u7b2c": 76, "\u2581had": 77, "\u2581A": 78, "\u2581also": 79, "\u4e2d": 80, "A": 81, "\u2581It": 82, "\u2581'": 83, "\u2581were": 84, "\u2581other": 85, "a": 86, "\u4ee5\u53ca": 87, "\u2581should": 88, "\u2581Council": 89, "\u2581development": 90, "\u5e76": 91, "\u2581would": 92, "\u2581rights": 93, "\u2581countries": 94, "\u2581s": 95, "\u5c06": 96, "m": 97, "1": 98, "\u2581report": 99, "\u2581You": 100, "\u5305\u62ec": 101, "ing": 102, "\u2581\u6211": 103, "d": 104, "\u2581me": 105, "\u2581\u5728": 106, "\u2581we": 107, "\u2581resolution": 108, "b": 109, "\u2581including": 110, "\u2581under": 111, "\u95ee\u9898": 112, "\u2581women": 113, "\u4ee5": 114, "\u2581such": 115, "3": 116, "\u2581human": 117, "\u2581work": 118, "\u2581General": 119, "\u2581Assembly": 120, "\u6211": 121, "\u2581can": 122, "\u6709": 123, "\u2581support": 124, "\u2581information": 125, "2": 126, "\u2581national": 127, "\u4eba": 128, "re": 129, "\u2581out": 130, "\u2581State": 131, "\u2581\u4f60": 132, "6": 133, "\u2581session": 134, "\u2581they": 135, "General": 136, "\u5173\u4e8e": 137, "4": 138, "\u2581one": 139, "\u2581We": 140, "\u2581Convention": 141, "\u65f6": 142, "\u2581implementation": 143, "\u2581Secretary": 144, "\u5c31": 145, "\u4f60": 146, "\u2581do": 147, "c": 148, "\u5411": 149, "\u4e0a": 150, "\u2581right": 151, "\u2581more": 152, "\u5176": 153, "\u2581made": 154, "\u4e0d": 155, "\u56fd\u5bb6": 156, "12": 157, "\u2581my": 158, "7": 159, "\u63d0\u4f9b": 160, "\u2581there": 161, "\u2581Government": 162, "\u2581Commission": 163, "\u2581into": 164, "\u2581those": 165, "\u800c": 166, "\u2581International": 167, "\u2581your": 168, "\u2581he": 169, "5": 170, "\u2581activities": 171, "\u2581against": 172, "C": 173, "\u2581his": 174, "\u2581well": 175, "\u8fdb\u884c": 176, "e": 177, "\u516c\u7ea6": 178, "\u2581no": 179, "\u2581through": 180, "\u2581about": 181, "\u4ed6": 182, "\u2581but": 183, "),": 184, "10": 185, "\u59d4\u5458\u4f1a": 186, "\u2581up": 187, "\u53ca": 188, "\u2581any": 189, "\u2581law": 190, "\u2581between": 191, "\u2581so": 192, "\u5de5\u4f5c": 193, ")\u3002": 194, "\u2581meeting": 195, "\u2581\u201c": 196, "9": 197, "\u65b9\u9762": 198, "\u2581them": 199, "\u2581who": 200, "\u2581What": 201, "\u2581know": 202, "\u2581per": 203, "\u2581need": 204, "\u2581measures": 205, "\u2581This": 206, "\u901a\u8fc7": 207, "\u2581system": 208, "\u2581what": 209, "\u2581country": 210, "\u2581new": 211, "\u2581Security": 212, "\u2581security": 213, "\u2581organizations": 214, "\u201d": 215, "\u2581time": 216, "\u2581Mr": 217, "\u2581No": 218, "\u2581Conference": 219, "\u6709\u5173": 220, "\u25811": 221, "\u00b7": 222, "\u2581Republic": 223, "\u2581cooperation": 224, "\u2581efforts": 225, "\u2581these": 226, "\u2581draft": 227, "\u8054\u5408\u56fd": 228, "S": 229, "\u6211\u4eec": 230, "\u2581could": 231, "L": 232, "\u4ece": 233, "\u6761": 234, "\u2581people": 235, "\u2581children": 236, "\u2581take": 237, "\u2581like": 238, "\u2581some": 239, "\u2581Development": 240, "\u5730": 241, "\u4e5f": 242, ").": 243, "\u62a5\u544a": 244, "\u2581if": 245, "\u65b9\u6848": 246, "\u2581resources": 247, "\u2581programme": 248, "\u2581He": 249, "ed": 250, "8": 251, "\u2581may": 252, "\u2581Rights": 253, "11": 254, "\u4e2a": 255, "\u2581non": 256, "\u9700\u8981": 257, "\u4e8e": 258, "\u2581regional": 259, "\u6bb5": 260, "\u53f7\u51b3\u8bae": 261, "\u2581two": 262, "\u6240": 263, "\u2581--": 264, "\u56fd\u9645": 265, "\u88ab": 266, "\u2581number": 267, "\u5230": 268, "\u2581cent": 269, "\u5e94": 270, "\u7531": 271, "\u6765": 272, "\u2581only": 273, "\u2581Group": 274, "\u2581assistance": 275, "\u5148\u751f": 276, "\u653f\u5e9c": 277, "\u2581order": 278, "\u2581ensure": 279, "\u2581issues": 280, "\u2581provide": 281, "\u6267\u884c": 282, "\u2581use": 283, "\u2581paragraph": 284, "\u2581financial": 285, "\u2581our": 286, "\u2581process": 287, "\u8fd9\u4e9b": 288, "\u2581economic": 289, "\u6d3b\u52a8": 290, "\u90fd": 291, "\u2581over": 292, "\u2581don": 293, "ll": 294, "\u2581Human": 295, "\u2581than": 296, "\u2581further": 297, "\u2581members": 298, "\u2581her": 299, "\u8bf4": 300, "\u2581social": 301, "\u2581just": 302, "\u2581article": 303, "\u6839\u636e": 304, "\u2581services": 305, "\u2581Office": 306, "\u2581must": 307, "\u2581And": 308, "\u4e00\u4e2a": 309, "\u2581Special": 310, "\u6ca1\u6709": 311, "\u2581particular": 312, "\u2581here": 313, "\u652f\u6301": 314, "\u2581party": 315, "\u8981\u6c42": 316, "\u2581developing": 317, "\u2581\u4ed6": 318, "\u2581provided": 319, "\u2581relevant": 320, "\u2581shall": 321, "\u201c": 322, "\u2581within": 323, "\u25812.": 324, "\u2581him": 325, "\u53ef": 326, "\u4ed6\u4eec": 327, "\u2581years": 328, "\u2581programmes": 329, "\u4f46": 330, "\u2581That": 331, "\u2581decision": 332, "\u4e00": 333, "\u25811.": 334, "\u2581\u6211\u4eec": 335, "\u4f1a\u8bae": 336, "\u2581C": 337, "\u5417": 338, "E": 339, "\u2581first": 340, "\u2581public": 341, "\u8981": 342, "\u2581management": 343, "\u2581December": 344, "\u2581[": 345, "\u2581when": 346, "\u2581areas": 347, "\u6cd5": 348, "\u5df2": 349, "\u2581adopted": 350, "\u2581period": 351, "\u2581make": 352, "\u2581staff": 353, "\u2581health": 354, "\u6240\u6709": 355, "\u2581now": 356, ");": 357, "\u2581held": 358, "\u4e0b": 359, "\u4ee3\u8868": 360, "\u2581where": 361, "\u2581during": 362, "\u2581level": 363, "\u6027": 364, "\u8fd8": 365, "30": 366, "\u7ee7\u7eed": 367, "\u2581being": 368, "\u8005": 369, "\u2581persons": 370, "\u53d1\u5c55": 371, "\u2581President": 372, "i": 373, "\u2581go": 374, "\u4f1a": 375, "\u2581review": 376, "\u2581regard": 377, "\u540e": 378, "\u2581B": 379, "\u5987\u5973": 380, "\u7ec4\u7ec7": 381, "\u2581protection": 382, "\u2581education": 383, "\u5b83": 384, "\u53ef\u4ee5": 385, "]": 386, "\u9879\u76ee": 387, "\u5efa\u8bae": 388, "\u2581action": 389, "\u2581parties": 390, "\u8be5": 391, "\u2581political": 392, "\u2581At": 393, "\u2581legal": 394, "\u4f5c\u4e3a": 395, "\u2581Programme": 396, "\u5df2\u7ecf": 397, "\u2581situation": 398, "\u4f7f": 399, "\u2581get": 400, "\u5408\u4f5c": 401, "\u2581continue": 402, "\u2581As": 403, "\u2581taken": 404, "\u2581peace": 405, "\u2581community": 406, "\u2581Organization": 407, "\u7b49": 408, "\u2581capacity": 409, "\u25813.": 410, "\u2581accordance": 411, "\u2581said": 412, "\u25812": 413, "\u2581following": 414, "\u2581training": 415, "\u2581policy": 416, "\u2581agenda": 417, "\u7684\u62a5\u544a": 418, "ve": 419, "\u2581respect": 420, "\u4f7f\u7528": 421, "\u2581recommendations": 422, "\u2581part": 423, "\u2581special": 424, "\u2581Member": 425, "\u2581world": 426, "\u5979": 427, "\u2581did": 428, "\u2581effective": 429, "\u5fc5\u987b": 430, "\u2581among": 431, "\u2581important": 432, "\u60c5\u51b5": 433, "20": 434, "\u7f8e\u5143": 435, "\u2581before": 436, "\u4fc3\u8fdb": 437, "\u673a\u6784": 438, "\u2581access": 439, "\u2581\u7b2c": 440, "15": 441, "\u884c\u52a8": 442, "\u2581both": 443, "\u2581most": 444, "\u2581reports": 445, "\u2581They": 446, "\u2581established": 447, "\u8fd9\u4e00": 448, "\u540d": 449, "\u2581S": 450, "\u2581Africa": 451, "\u8ba4\u4e3a": 452, "\u53ef\u80fd": 453, "\u5904\u7406": 454, "\u2581role": 455, "\u2581To": 456, "\u65e5\u7b2c": 457, "\u2581progress": 458, "\u2581related": 459, "\u53c2\u4e0e": 460, "\u89c4\u5b9a": 461, "\u2581Parties": 462, "\u4fdd\u62a4": 463, "\u7ecf\u6d4e": 464, "\u2581year": 465, "y": 466, "\u2581working": 467, "\u2581same": 468, "\u2581many": 469, "\u2581gender": 470, "\u2581E": 471, "\u2581good": 472, "\u258110": 473, "\u2581There": 474, "\u5185": 475, "\u63aa\u65bd": 476, "\u2581June": 477, "\"": 478, "\u2581violence": 479, "ly": 480, "\u2581way": 481, "\u2581view": 482, "\u2581World": 483, "\u2581present": 484, "\u7ba1\u7406": 485, "\u540c": 486, "\u25814.": 487, "\u2581see": 488, "\u2581want": 489, "\u25813": 490, "\u5efa\u7acb": 491, "\u5b9e\u65bd": 492, "\u2581global": 493, "\u2581she": 494, "\u786e\u4fdd": 495, "th": 496, "\u6cd5\u5f8b": 497, "\u2581Economic": 498, "\u5427": 499, "\u2581But": 500, "er": 501, "\u5ba1\u67e5": 502, "\u2581appropriate": 503, "\u2581technical": 504, "\u653f\u7b56": 505, "\u83b7\u5f97": 506, "\u53f7": 507, "\u7279\u522b\u662f": 508, "\u2581nuclear": 509, "\u25815": 510, "\u670d\u52a1": 511, "\u2581us": 512, "\u2581three": 513, "\u628a": 514, "\u2581Social": 515, "\u5927\u4f1a": 516, "\u5373": 517, "\u2581budget": 518, "\u2581item": 519, "\u2581full": 520, "\u8fd9": 521, "\u2581P": 522, "\u2581set": 523, "\u2581Board": 524, "\u2581necessary": 525, "\u51b3\u5b9a": 526, "\u2581basis": 527, "\u2581African": 528, "\u8fd9\u79cd": 529, "\u7684\u4eba": 530, "\u2581how": 531, "18": 532, "\u80fd": 533, "\u2581\u56e0\u6b64": 534, "\u52a0\u5f3a": 535, "\u2581institutions": 536, "\u2581without": 537, "\u2581\u300a": 538, "\u2581case": 539, "\u2581possible": 540, "\u2581place": 541, "\u81f3": 542, "):": 543, "\u4efb\u4f55": 544, "\u65e5\u81f3": 545, "\u6b3e": 546, "\u2581million": 547, "\u8ba1\u5212": 548, "\u793e\u4f1a": 549, "\u2581\u5173\u4e8e": 550, "\u5927": 551, "\u2581National": 552, "\u91c7\u53d6": 553, "\u589e\u52a0": 554, "\u2581groups": 555, "P": 556, "\u2581after": 557, "\u7684\u5de5\u4f5c": 558, "\u2581think": 559, "\u2581provisions": 560, "\u2581got": 561, "\u2581All": 562, "\u2581meetings": 563, "\u52aa\u529b": 564, "\u63d0\u51fa": 565, "\u2581cases": 566, "\u2581since": 567, "\u513f\u7ae5": 568, "\u2581policies": 569, "\u2581July": 570, "g": 571, "\u91cc": 572, "\u53ca\u5176": 573, "\u2581consideration": 574, "\u2581general": 575, "\u533a\u57df": 576, "\u80fd\u591f": 577, "\u2581Working": 578, "\u2581needs": 579, "\u25815.": 580, "\u5f00\u5c55": 581, "\u2581\u6b64\u5916": 582, "\u2581On": 583, "\u2581very": 584, "\u2581upon": 585, "\u2581include": 586, "\u2581end": 587, "Add": 588, "f": 589, "\u2581data": 590, "\u2581For": 591, "17": 592, "\u89e3\u51b3": 593, "\u2581concerned": 594, "\u65b0\u7684": 595, "\u5b9e\u73b0": 596, "\u6218\u7565": 597, "\u2581trade": 598, "\u2581while": 599, "\u2581Court": 600, "\u2581local": 601, "\u2581issue": 602, "\u2581each": 603, "\u2581account": 604, "\u53bb": 605, "\u2581framework": 606, "\u2581high": 607, "\u2581available": 608, "\u2581\u5979": 609, "\u2581So": 610, "\u2581used": 611, "\u2581back": 612, "I": 613, "\u6559\u80b2": 614, "\u66f4": 615, "\u5404": 616, "\u4e00\u4e9b": 617, "al": 618, "\u2581Oh": 619, "\u2581She": 620, "\u8ba8\u8bba": 621, "Q": 622, "\u2581region": 623, "\u2581New": 624, "\u2581increase": 625, "\u2581Yeah": 626, "\u524d": 627, "\u5176\u4ed6": 628, "\u2581noted": 629, "\u2581Fund": 630, "\u2581proposed": 631, "\u25814": 632, "\u2581European": 633, "14": 634, "\u2581May": 635, "\u65b0": 636, "\u56e0\u4e3a": 637, "\u2581importance": 638, "\u4ee5\u4fbf": 639, "\u2581area": 640, "\u7279\u522b": 641, "\u25818": 642, "\u2581humanitarian": 643, "\u2581Secretariat": 644, "\u63d0\u4ea4": 645, "\u7528": 646, "\u786e\u5b9a": 647, "\u2581considered": 648, "\u2581group": 649, "\u2581Women": 650, "\u2581based": 651, "\u7f14\u7ea6\u56fd": 652, "\u6280\u672f": 653, "\u2581society": 654, "\u2581delegation": 655, "\u2581address": 656, "B": 657, "\u2581promote": 658, "\u2581September": 659, "\u673a\u5236": 660, "\u2581submitted": 661, "\u2581D": 662, "\u5f97\u5230": 663, "\u2581conflict": 664, "\u2581developed": 665, "25": 666, "\u2581Action": 667, "\u7cfb\u7edf": 668, "\u25816.": 669, "16": 670, "\u258115": 671, "or": 672, "\u7684\u95ee\u9898": 673, "\u7684\u56fd\u5bb6": 674, "\u7ed9": 675, "\u5b89\u5168": 676, "\u6307\u51fa": 677, "\u2581particularly": 678, "\u2581Union": 679, "\u2581November": 680, "\u65af": 681, "\u2581participation": 682, "\u2581life": 683, "\u5ba1\u8bae": 684, "\u548c\u5176\u4ed6": 685, "\u2581If": 686, "\u2581resolutions": 687, "\u8bf4\u660e": 688, "\u2581sustainable": 689, "13": 690, "\u25816": 691, "\u2581October": 692, "\u2581poverty": 693, "\u2581child": 694, "\u2581because": 695, "\u2581bodies": 696, "\u554a": 697, "\u2581plan": 698, "\u4eba\u6743": 699, "\u7684\u60c5\u51b5": 700, "\u2581sector": 701, "\u53c2\u52a0": 702, "\u591a": 703, "\u51cf\u5c11": 704, "\u2581document": 705, "\u5229\u7528": 706, "\u8c03\u67e5": 707, "\u5168\u7403": 708, "\u258130": 709, "\u2581levels": 710, "\u2581note": 711, "\u2581specific": 712, "\u671f\u95f4": 713, "19": 714, "23": 715, "\u5176\u4e2d": 716, "\u2581going": 717, "\u2581Article": 718, "\u4eba\u5458": 719, "2005": 720, "\u2581help": 721, "\u4f5c\u51fa": 722, "\u258112": 723, "\u2581Mission": 724, "\u2581field": 725, "\u2581long": 726, "\u25819": 727, "\u6587\u4ef6": 728, "\u6b63\u5728": 729, "\u2581required": 730, "\u2581come": 731, "\u2581current": 732, "\u79d8\u4e66\u5904": 733, "\u2581still": 734, "\u5462": 735, "\u2581weapons": 736, "31": 737, "\u2581project": 738, "\u597d": 739, "\u2581Department": 740, "\u2581agencies": 741, "\u2581future": 742, "\u2581civil": 743, "\u5177\u6709": 744, "\u5982": 745, "n": 746, "\u8fd9\u4e2a": 747, "in": 748, "\u2581requirements": 749, "\u2581military": 750, "\u7814\u7a76": 751, "\u2581Declaration": 752, "\u5236\u5b9a": 753, "\u2581requested": 754, "\u2581operations": 755, "\u2581various": 756, "\u8bc4\u4f30": 757, "\u2581Law": 758, "\u652f\u52a9": 759, "\u5e76\u4e14": 760, "\u2581Governments": 761, "\u2581authorities": 762, "\u9886\u57df": 763, "22": 764, "\u2581context": 765, "up": 766, "\u258120": 767, "\u2581\u4e0d": 768, "\u8d44\u6e90": 769, "21": 770, "\u6d89\u53ca": 771, "\u2581additional": 772, "\u2581March": 773, "\u8d1f\u8d23": 774, "\u2581addition": 775, "\u800c\u4e14": 776, "\u7a0b\u5e8f": 777, "\u25817.": 778, "\u25812005": 779, "24": 780, "\u63a5\u53d7": 781, "\u55ce": 782, "\u2581means": 783, "\u8fdb\u4e00\u6b65": 784, "\u5f97": 785, "\u2581control": 786, "\u2581representatives": 787, "\u2581then": 788, "\u2581agreed": 789, "\u2581police": 790, "\u2581down": 791, "\u2581even": 792, "D": 793, "\u2581Protocol": 794, "\u2581High": 795, "\u5f71\u54cd": 796, "\u5de5\u4f5c\u4eba\u5458": 797, "\u2581contained": 798, "\u2581\u8fd9": 799, "on": 800, "\u2581\u6839\u636e": 801, "\u2581South": 802, "\u2581Report": 803, "\u2581p": 804, "2000": 805, "\u56fd": 806, "\u2581mandate": 807, "\u2581\u59d4\u5458\u4f1a": 808, "\u2581towards": 809, "\u2581given": 810, "\u25817": 811, "\u5de5\u4f5c\u7ec4": 812, "\u5404\u79cd": 813, "\u4e4b\u540e": 814, "\u2581However": 815, "\u4e2d\u5fc3": 816, "\u2581above": 817, "\u2581April": 818, "\u81ea": 819, "\u89c1": 820, "\u6807\u51c6": 821, "\u76ee\u6807": 822, ".1": 823, "\u2581concern": 824, "\u2581impact": 825, "\u258111": 826, "\u258118": 827, "\u2581approach": 828, "\u2581representative": 829, "\u2581continued": 830, "2002": 831, "2004": 832, "\u2581change": 833, "\u2581family": 834, "\u2581projects": 835, "\u672c": 836, "\u2581conditions": 837, "\u2581attention": 838, "CN": 839, "28": 840, "\u2581Rapporteur": 841, "\u2581population": 842, "\u2581does": 843, "\u2581Affairs": 844, "\u534f\u52a9": 845, "\u2581organization": 846, "\u2581give": 847, "\u79d8\u4e66\u957f": 848, "2003": 849, "\u6bd4": 850, "\u2581\u5bf9": 851, "2006": 852, "\u2581request": 853, "\u51fa": 854, "27": 855, "\u80fd\u529b": 856, "\u6761\u7ea6": 857, "\u2581member": 858, "\u2581concerning": 859, "\u2581status": 860, "o": 861, "\u2581private": 862, "\u5b50": 863, "\u8868\u793a": 864, "\u4e4b\u95f4": 865, "\u4fe1\u606f": 866, "\u6210\u5458": 867, ")\u3001": 868, "\u5b89\u5168\u7406\u4e8b\u4f1a": 869, "\u7684\u6743\u5229": 870, "X": 871, "2001": 872, "\u2581\u4f46\u662f": 873, "\u534f\u8c03": 874, "\u2581major": 875, "\u2581establishment": 876, "\u5404\u56fd": 877, "\u5b89\u6392": 878, "\u65e0": 879, "\u7406\u4e8b\u4f1a": 880, "\u73af\u5883": 881, "\u2581Well": 882, "26": 883, "\u2581relating": 884, "\u2581January": 885, "\u8fc7": 886, "\u2581discrimination": 887, "\u63f4\u52a9": 888, "\u56e0\u6b64": 889, "\u8003\u8651": 890, "\u5206": 891, "\u4e4b": 892, "\u2581say": 893, "\u2581gonna": 894, "\u2581statement": 895, "\u5b83\u4eec": 896, "see": 897, "\u25818.": 898, "\u2581rules": 899, "\u2581consider": 900, "\u6743\u5229": 901, "\u5236\u5ea6": 902, "\u2581justice": 903, "\u2581How": 904, "\u5730\u533a": 905, "\u25812006": 906, "\u4e16\u754c": 907, "\u4e3b\u8981": 908, "\u2581care": 909, "\u2581Palestinian": 910, "\u2581comprehensive": 911, "\u2581second": 912, "\u2581better": 913, "\u5e94\u5f53": 914, "\u2581question": 915, "\u2014": 916, "\u25812000": 917, "\u2581force": 918, "\u662f\u5426": 919, "\u62c9": 920, "\u2581total": 921, "\u25812004": 922, "\u2581legislation": 923, "\u56e0": 924, "\u4e3b\u5e2d": 925, "\u2581entitled": 926, "\u2581own": 927, "\u53d1\u8a00": 928, "\u2581monitoring": 929, "\u60f3": 930, "\u2581F": 931, "\u25812002": 932, "\u2581provision": 933, "\u2581reporting": 934, "\u2581systems": 935, "\u2581taking": 936, "\u2581inter": 937, "\u53d7": 938, "2007": 939, "\u2581whether": 940, "\u2581expressed": 941, "\u2581strengthen": 942, "\u2581coordination": 943, "\u2581received": 944, "29": 945, "\u2581domestic": 946, "\u2581men": 947, "\u2581addressed": 948, "\u8d39\u7528": 949, "2008": 950, "\u2581Yes": 951, "\u4e3e\u884c": 952, "\u2581different": 953, "\u2581much": 954, "\u25812003": 955, "\u2581existing": 956, "\u5f00\u59cb": 957, "\u2581mechanisms": 958, "\u2581implement": 959, "\u2581Executive": 960, "\u2581responsibility": 961, "\u2581II": 962, "\u2581man": 963, "\u2581armed": 964, "\u8bf7": 965, "\u5171\u540c": 966, "\u2581therefore": 967, "\u2581\u5982\u679c": 968, "\u2581practices": 969, "\u6709\u5173\u7684": 970, "\u6700": 971, "\u2581increased": 972, "\u4e4b\u524d": 973, "\u2581especially": 974, "\u2581last": 975, "\u2581Act": 976, "\u2581costs": 977, "\u2581annex": 978, "\u2581result": 979, "\u90e8\u95e8": 980, "\u653f\u6cbb": 981, "\u2581principles": 982, "\u2581Arab": 983, "\u57f9\u8bad": 984, "\u258116": 985, "\u2581technology": 986, "\u2581too": 987, "\u2581included": 988, "%": 989, "\u2581procedures": 990, "\u2581obligations": 991, "\u4ee3\u8868\u56e2": 992, "\u7279": 993, "\u258114": 994, "\u5e2e\u52a9": 995, "\u7684\u5efa\u8bae": 996, "\u672a": 997, "\u6cd5\u9662": 998, "\u5916": 999, "\u25819.": 1000, "\u25812008": 1001, "\u63d0\u9ad8": 1002, "\u5bf9\u4e8e": 1003, "\u2581fully": 1004, "\u70b9": 1005, "\u25812007": 1006, "\u2581personnel": 1007, "\u258113": 1008, "\u2581results": 1009, "\u76ee\u524d": 1010, "\u884c\u4e3a": 1011, "\u2581might": 1012, "\u258119": 1013, "\u2581\u4ed6\u4eec": 1014, "\u4ec0\u4e48": 1015, "\u6309\u7167": 1016, "\u5f88": 1017, "\u53d7\u5230": 1018, "\u258117": 1019, "\u6c34": 1020, "\u65b9\u9762\u7684": 1021, "\u7528\u4e8e": 1022, "\u2581standards": 1023, "\u5f3a\u8c03": 1024, "\u2581rule": 1025, "\u516c\u53f8": 1026, "\u5e94\u8be5": 1027, "\u25812001": 1028, "\u2581water": 1029, "\u2581criminal": 1030, "\u2581adoption": 1031, "\u2581small": 1032, "\u2581key": 1033, "\u2581terms": 1034, "\u2581subject": 1035, "\u2581fact": 1036, "\u627f\u8bfa": 1037, "\u4eba\u6c11": 1038, "\u2581amount": 1039, "\u2581regarding": 1040, "\u81ea\u5df1": 1041, "\u2581These": 1042, "\u2581environment": 1043, "h": 1044, "\u65b9\u5f0f": 1045, "\u2581funds": 1046, "\u258131": 1047, "\u2581already": 1048, "\u5c0f": 1049, "\u2581000": 1050, "\u5982\u679c": 1051, "\u5fb7": 1052, "\u5c0f\u7ec4": 1053, "\u90e8\u5206": 1054, "\u2581Representative": 1055, "\u65f6\u95f4": 1056, "\u975e\u6d32": 1057, "\u6210\u4e3a": 1058, "\u57fa\u91d1": 1059, "\u2581contributions": 1060, "\u00e9": 1061, "\u2581day": 1062, "\u2581With": 1063, "*": 1064, "\u4e0d\u80fd": 1065, "\u2581\u4f46": 1066, "\u2581improve": 1067, "\u5982\u4f55": 1068, "\u2581follow": 1069, "\u2581peacekeeping": 1070, "\u2581challenges": 1071, "\u9ad8": 1072, "\u4e2d\u7684": 1073, "\u5219": 1074, "\u7531\u4e8e": 1075, "\u2581My": 1076, "\u2581agreement": 1077, "\u2581decided": 1078, "\u2581Ministry": 1079, "\u2581risk": 1080, "\u627f\u8ba4": 1081, "\u4e00\u9879": 1082, "\u2581consultations": 1083, "\u975e": 1084, "\u2581providing": 1085, "\u534f\u5b9a": 1086, "\u2581response": 1087, "\u2581person": 1088, "\u5973\u58eb": 1089, "\u505a": 1090, "\u2581strengthening": 1091, "\u2581called": 1092, "based": 1093, "\u2581Come": 1094, "\u90a3": 1095, "\u5bb6\u5ead": 1096, "\u2581secretariat": 1097, "\u6570\u636e": 1098, "\u2581decisions": 1099, "\u2581August": 1100, "\u2581Advisory": 1101, "\u65e0\u6cd5": 1102, "\u8d44\u6599": 1103, "\u2581indigenous": 1104, "\u2581together": 1105, "\u9f13\u52b1": 1106, "\u53c8": 1107, "\u2581terrorism": 1108, "\u5e0c\u671b": 1109, "\u2581food": 1110, "\u2581best": 1111, "\u539f\u5219": 1112, "\u2581commitment": 1113, "\u2581victims": 1114, "\u258110.": 1115, "\u2581\u662f": 1116, "\u2581post": 1117, "\u7740": 1118, "\u2581call": 1119, "\u540c\u65f6": 1120, "\u8d44\u91d1": 1121, "\u2581off": 1122, "\u9884\u7b97": 1123, "\u2581HIV": 1124, "\u2581least": 1125, "\u2581America": 1126, "\u2581behalf": 1127, "\u2581service": 1128, "\u2581disarmament": 1129, "\u2581Let": 1130, "governmental": 1131, "\u8ba9": 1132, "\u2581Do": 1133, "\u2581assessment": 1134, "\u2581environmental": 1135, "\u2581February": 1136, "\u529e\u6cd5": 1137, "building": 1138, "\u2581example": 1139, "\u2581initiatives": 1140, "\u2581Iraq": 1141, "\u2581put": 1142, "\u2581government": 1143, "\u2581*": 1144, "\u2581due": 1145, "\u4ee5\u8272\u5217": 1146, "\u2581matter": 1147, "\u5b8c\u6210": 1148, "\u2581recent": 1149, "\u2581mission": 1150, "\u2581five": 1151, "\u2581prevention": 1152, "\u2581de": 1153, "\u5316": 1154, "\u2581Israel": 1155, "\u2581Why": 1156, "\u2581another": 1157, "\u9879": 1158, "\u2581provides": 1159, "\u2581Hey": 1160, "\u5177\u4f53": 1161, "\u6ce8\u610f\u5230": 1162, "\u90e8": 1163, "\u79d1": 1164, "\u7279\u6d3e\u56e2": 1165, "\u2581reported": 1166, "\u2581several": 1167, "\u2581dialogue": 1168, "\u2581meet": 1169, "\u4f1a\u5458\u56fd": 1170, "\u7684\u80fd\u529b": 1171, "\u2581lack": 1172, "\u76f8\u5173": 1173, "\u258111.": 1174, "\u2581never": 1175, "\u2581took": 1176, "\u2581develop": 1177, "F": 1178, "\u2581actions": 1179, "\u2581common": 1180, "\u2581...": 1181, "\u7684\u5f71\u54cd": 1182, "\u5168\u9762": 1183, "\u2581space": 1184, "\u2581equality": 1185, "\u6743": 1186, "\u65b9\u6cd5": 1187, "\u2581significant": 1188, "\u2581little": 1189, "\u2581strategy": 1190, "\u91c7\u7528": 1191, "\u2581every": 1192, "\u6539\u5584": 1193, "\u548c\u5e73": 1194, "\u2581land": 1195, "\u5929": 1196, "\u2581East": 1197, "\u2581four": 1198, "es": 1199, "\u2581Service": 1200, "\u2581Ms": 1201, "1999": 1202, "un": 1203, "\u2581again": 1204, "\u2581reform": 1205, "\u2581application": 1206, "\u2581problems": 1207, "\u5bb6": 1208, "\u5c14": 1209, "\u90a3\u4e9b": 1210, "\u624b": 1211, "\u4ee5\u4e0b": 1212, "\u2581missions": 1213, "\u2581really": 1214, "2009": 1215, "\u2581matters": 1216, "\u2581look": 1217, "\u258122": 1218, "\u2581next": 1219, "\u6309": 1220, "\u6846\u67b6": 1221, "\u4e09": 1222, "\u2581trafficking": 1223, "\u2581am": 1224, "\u2581done": 1225, "\u2581\u8fd9\u4e9b": 1226, "\u2581cost": 1227, "\u4f8b\u5982": 1228, "\u2581documents": 1229, "\u514b": 1230, "\u2581something": 1231, "r": 1232, "\u258121": 1233, "\u4e8c": 1234, "\u4e2a\u4eba": 1235, "\u518d": 1236, "\u2581requests": 1237, "\u2581arms": 1238, "\u2581regular": 1239, "\u2581G": 1240, "\u2581peoples": 1241, "\u5c24\u5176\u662f": 1242, "\u2581\u5b83": 1243, "\u2581\u7136\u800c": 1244, "\u2581establish": 1245, "\u2019": 1246, "\u8bbe\u7acb": 1247, "\u2581UNDP": 1248, "\u63a8\u52a8": 1249, "\u2581biennium": 1250, "\u9488\u5bf9": 1251, "\u2581found": 1252, "\u2581promotion": 1253, "\u53d1\u751f": 1254, "\u2581\u8054\u5408\u56fd": 1255, "\u6279\u51c6": 1256, "\u540c\u610f": 1257, "\u7684\u6240\u6709": 1258, "\u4e0d\u662f": 1259, "\u7684\u6d3b\u52a8": 1260, "\u2581Permanent": 1261, "\u2581business": 1262, "\u2581crime": 1263, "\u76d1\u6d4b": 1264, "\u2581didn": 1265, "\u2581tell": 1266, "\u2581Information": 1267, "\u6539\u9769": 1268, "\u2581para": 1269, "\u963f": 1270, "\u2581girls": 1271, ")(": 1272, "\u258112.": 1273, "\u2581planning": 1274, "\u63d0\u4f9b\u4e86": 1275, "\u258125": 1276, "\u2581practice": 1277, "\u2581doing": 1278, "\u2581acts": 1279, "term": 1280, "\u5904": 1281, "\u2581main": 1282, "\u7f8e\u56fd": 1283, "\u4f5c": 1284, "\u2581cultural": 1285, "\u2581employment": 1286, "\u2581focus": 1287, "\u4fdd\u8bc1": 1288, "\u8054\u5408": 1289, "\u2581priority": 1290, "\u2581One": 1291, "\u2581While": 1292, "\u4f5c\u7528": 1293, "\u2581needed": 1294, "\u2581\u90a3": 1295, "\u2581re": 1296, "\u7684\u60c5\u51b5\u4e0b": 1297, "\u2581find": 1298, "\u2581administrative": 1299, "\u2581research": 1300, "\u4f60\u7684": 1301, "\u2581Don": 1302, "\u2581course": 1303, "\u6295\u8d44": 1304, "\u2581\u4e3a": 1305, "\u2581Commissioner": 1306, "\u2581\u8bf7": 1307, "\u5baa\u6cd5": 1308, "\u2581China": 1309, "\u2581Okay": 1310, "\u2581Millennium": 1311, "\u2581problem": 1312, "\u2581growth": 1313, "\u258123": 1314, "\u2581procedure": 1315, "\u2581funding": 1316, "\u2581violations": 1317, "\u2581recommended": 1318, "\u7f51\u7edc": 1319, "\u2581serious": 1320, "\u2581third": 1321, "\u2581Democratic": 1322, "\u9650\u5236": 1323, "\u2581operational": 1324, "\u2581great": 1325, "2010": 1326, "\u2581sexual": 1327, "\u5728\u5176": 1328, "\u2581mean": 1329, "\u56fd\u9645\u793e\u4f1a": 1330, "\u2581partners": 1331, "\u2581prevent": 1332, "\u2581yet": 1333, "40": 1334, "\u2581Panel": 1335, "\u8d77": 1336, "\u2581strategies": 1337, "\u4e0d\u540c": 1338, "\u2581agreements": 1339, "\u2581treaty": 1340, "\u4e4b\u95f4\u7684": 1341, "\u4eba\u53e3": 1342, "\u4ecd\u7136": 1343, "\u2581clear": 1344, "\u5229": 1345, "\u2581Director": 1346, "\u258124": 1347, "\u529e\u516c\u5ba4": 1348, "\u5361": 1349, "\u63d0\u51fa\u7684": 1350, "\u8fdb\u7a0b": 1351, "\u2581around": 1352, "\u2581discussion": 1353, "\u25812009": 1354, "\u7981\u6b62": 1355, "\u8d70": 1356, "\u2581Treaty": 1357, "\u2581treatment": 1358, "\u73b0\u5728": 1359, "\u9020\u6210": 1360, "\u2581instruments": 1361, ";(": 1362, "\u2581\u6211\u5011": 1363, "\u2581forces": 1364, "\u8868\u660e": 1365, "\u76f4\u63a5": 1366, "\u5b89\u7406\u4f1a": 1367, "\u2581reduction": 1368, "\u2581statements": 1369, "\u2581annual": 1370, "\u897f": 1371, "\u9009\u4e3e": 1372, "\u4e0a\u8ff0": 1373, "\u2581promoting": 1374, "\u2581achieve": 1375, "\u2581\u5c31": 1376, "\u6211\u5011": 1377, "\u5206\u6790": 1378, "\u5408\u540c": 1379, "\u4e86\u89e3": 1380, "\u533a": 1381, "\u2581Covenant": 1382, "\u6709\u6548": 1383, "\u8bb8\u591a": 1384, "\u2581however": 1385, "[": 1386, "\u25811999": 1387, "\u2581responsible": 1388, "\u2581Chairman": 1389, "\u89c4\u5219": 1390, "\u2581let": 1391, "\u2581Centre": 1392, "\u9632\u6b62": 1393, "\u2581office": 1394, "\u5236\u8ba2": 1395, "\u7684\u89c4\u5b9a": 1396, "\u8bba\u575b": 1397, "\u2581involved": 1398, "\u2581committed": 1399, "\u5c31\u662f": 1400, "\u2581past": 1401, "\u6761\u4ef6": 1402, "\u2581equipment": 1403, "\u4e13\u5bb6": 1404, "\u4f60\u4eec": 1405, "\u2581Division": 1406, "\u2581light": 1407, "\u2581implementing": 1408, "\u5b8c\u5168": 1409, "\u2581section": 1410, "\u2581::": 1411, "\u2581list": 1412, "\u2581laws": 1413, "\u2581production": 1414, "\u2581become": 1415, "\u2581notes": 1416, "\u2581\u6709": 1417, "\u2581organized": 1418, "\u2581objectives": 1419, "\u4f0a\u62c9\u514b": 1420, "\u2581property": 1421, "\u6d88\u9664": 1422, "\u2581dated": 1423, "\u6b21": 1424, "\u258113.": 1425, "\u2581Tribunal": 1426, "\u53d1": 1427, "level": 1428, "\u2581performance": 1429, "\u2581home": 1430, "\u4efb\u52a1": 1431, "\u7ecf": 1432, "\u2581awareness": 1433, "\u2581aimed": 1434, "T": 1435, "\u8d38\u6613": 1436, "\u7acb\u6cd5": 1437, "\u2581rate": 1438, "\u2581Minister": 1439, "\u2581Where": 1440, "\u2581date": 1441, "\u2581steps": 1442, "\u4f46\u662f": 1443, "\u6253": 1444, "\u2581position": 1445, "\u8b66\u5bdf": 1446, "\u201d,": 1447, "\u6539\u8fdb": 1448, "\u2581adequate": 1449, "\u2581open": 1450, "\u2581certain": 1451, "\u8349\u6848": 1452, "\u2581\u7531\u4e8e": 1453, "\u2581pursuant": 1454, "\u9002\u5f53": 1455, "\u53d6\u5f97": 1456, "\u2581Asia": 1457, "to": 1458, "\u2581facilitate": 1459, "\u2581forms": 1460, "\u2581believe": 1461, "\u2581supported": 1462, "\u63a7\u5236": 1463, "\u2581previous": 1464, "\u2581enhance": 1465, "\u2581individual": 1466, "\u2581living": 1467, "\u2581Other": 1468, "\u2581why": 1469, "\u2581official": 1470, "\u8bf7\u6c42": 1471, "50": 1472, "\u770b": 1473, "\u52a0\u5165": 1474, "\u2581An": 1475, "\u2581Central": 1476, "\u2581approved": 1477, "\u25812010": 1478, "\u2581free": 1479, "\u5c65\u884c": 1480, "G": 1481, "\u2581communities": 1482, "\u2581knowledge": 1483, "\u2581author": 1484, "\u2581God": 1485, "\u258114.": 1486, "\u2581joint": 1487, "\u7684\u4e00\u4e2a": 1488, "\u6ce8\u610f": 1489, "l": 1490, "\u5c3c": 1491, "\u77e5\u9053": 1492, "\u2581plans": 1493, "\u2581school": 1494, "\u2581posts": 1495, "\u2581H": 1496, "\u6536\u5165": 1497, "\u2581investment": 1498, "\u6211\u7684": 1499, "\u9a6c": 1500, "\u51b2\u7a81": 1501, "\u2581form": 1502, "\u2581early": 1503, "\u2581energy": 1504, "\u6062\u590d": 1505, "M": 1506, "\u9009\u62e9": 1507, "\u258128": 1508, "\u2581purpose": 1509, "\u2581able": 1510, "\u2581days": 1511, "\u6269\u5927": 1512, "tergovernmental": 1513, "\u2581Criminal": 1514, "\u2581strategic": 1515, "\u2581proposals": 1516, "\u2581d": 1517, "\u2014\u2014": 1518, "\u975e\u653f\u5e9c\u7ec4\u7ec7": 1519, "\u2581interest": 1520, "\u6210\u5458\u56fd": 1521, "\u4e8b": 1522, "\u4fdd\u969c": 1523, "\u957f\u671f": 1524, "\u2581assist": 1525, "\u2581income": 1526, "\u2581Charter": 1527, "\u2581essential": 1528, "\u2581understanding": 1529, "\u2581greater": 1530, "\u2581recommendation": 1531, "\u2581Agenda": 1532, "\u2581M": 1533, "\u2581issued": 1534, "\u8fdb\u884c\u4e86": 1535, "\u2581\u5728\u8fd9\u65b9\u9762": 1536, "\u6b22\u8fce": 1537, "\u5f53\u5c40": 1538, "\u2581L": 1539, "\u2581self": 1540, "\u6765\u81ea": 1541, "\u65b9": 1542, "\u2581Trade": 1543, "\u2581communication": 1544, "\u2581analysis": 1545, "\u81ea\u7531": 1546, "\u2581principle": 1547, "\u52a0": 1548, "\u5145\u5206": 1549, "\u2581wish": 1550, "\u6b63": 1551, "te": 1552, "\u300b(": 1553, "\u2581implemented": 1554, "\u2581age": 1555, "\u9075\u5b88": 1556, "\u91cd\u8981": 1557, "\u2581ensuring": 1558, "\u2581Plan": 1559, "\u53d1\u5c55\u4e2d\u56fd\u5bb6": 1560, "\u2581offices": 1561, "\u53f8\u6cd5": 1562, "\u2581arrangements": 1563, "\u2581Review": 1564, "\u2581Bank": 1565, "\u2581carried": 1566, "\u2581R": 1567, "u": 1568, "\u2581having": 1569, "\u4e1a\u52a1": 1570, "\u2581expected": 1571, "\u53ea": 1572, "\u2581experts": 1573, "\u2581evaluation": 1574, "\u2581equal": 1575, "\u2581Implementation": 1576, "\u2581Kingdom": 1577, "\u4f86": 1578, "\u62e5\u6709": 1579, "\u5fc3": 1580, "\u2581potential": 1581, "\u2581undertaken": 1582, "\u2581line": 1583, "\u2581Russian": 1584, "\u5021\u8bae": 1585, "\u2581large": 1586, "\u4e3e\u884c\u7684": 1587, "\u6cd5\u5b98": 1588, "\u4e00\u6837": 1589, "\u2581foreign": 1590, "\u8c08\u5224": 1591, "\u751f": 1592, "\u2581text": 1593, "\u258115.": 1594, "\u2581protect": 1595, "\u8868": 1596, "\u4fdd\u7559": 1597, "\u2581His": 1598, "\u2581stated": 1599, "\u4e0b\u5217": 1600, "\u5a01\u80c1": 1601, "\u975e\u5e38": 1602, "\u2581goals": 1603, "\u2581Geneva": 1604, "1998": 1605, "\u2581contribute": 1606, "\u2581prepared": 1607, "\u2581affected": 1608, "\u2581guidelines": 1609, "\u2581Federation": 1610, "\u2581basic": 1611, "\u2581V": 1612, "\u7684\u662f": 1613, "\u7eb3\u5165": 1614, "\u2581Summit": 1615, "\u72af\u7f6a": 1616, "\u2581opportunities": 1617, "\u258127": 1618, "\u2581until": 1619, "\u793e\u533a": 1620, "\u786e\u8ba4": 1621, "\u6cd5\u5ead": 1622, "\u2581study": 1623, "\u2581Global": 1624, "\u2581Dur": 1625, "\u6700\u8fd1": 1626, "\u7684\u65b9\u5f0f": 1627, "\u2581York": 1628, "\u2581fundamental": 1629, "\u2581financing": 1630, "\u7f3a\u4e4f": 1631, "\u2581making": 1632, "\u2581conduct": 1633, "\u258126": 1634, "\u53f7\u51b3\u5b9a": 1635, "\u2581UN": 1636, "\u2581months": 1637, "\u2581Israeli": 1638, "\u2581others": 1639, "\u534f\u4f1a": 1640, "\u7b26\u5408": 1641, "\u534f\u8bae": 1642, "\u2581proposal": 1643, "\u2581informed": 1644, "\u2581market": 1645, "\u2581far": 1646, "\u2581nature": 1647, "\u2581facilities": 1648, "\u5b58\u5728": 1649, "\u2581aspects": 1650, "\u5173\u7cfb": 1651, "\u2581vote": 1652, "\u2581today": 1653, "\u2581fifty": 1654, "\u2581processes": 1655, "\u7684\u7b2c": 1656, "\u2581Management": 1657, "\u4e07\u7f8e\u5143": 1658, "\u6703": 1659, "\u6c11\u4e3b": 1660, "\u2581building": 1661, "\u2581delegations": 1662, "\u2581rural": 1663, "k": 1664, "\u2581body": 1665, "\u4e49\u52a1": 1666, "\u4f01\u4e1a": 1667, "\u7efc\u5408": 1668, "\u2581Justice": 1669, "\u2581mechanism": 1670, "\u2581bring": 1671, "\u9898\u4e3a": 1672, "\u2581exchange": 1673, "\u2581Cooperation": 1674, "\u2581money": 1675, "\u8d23\u4efb": 1676, "\u2581point": 1677, "\u2581climate": 1678, "\u9636\u6bb5": 1679, "\u5ba3\u8a00": 1680, "\u258116.": 1681, "\u25811998": 1682, "\u4e24\u4e2a": 1683, "\u2581natural": 1684, "en": 1685, "\u7ed3\u679c": 1686, "\u519b\u4e8b": 1687, "\u2581Forum": 1688, "\u2581independent": 1689, "\u2581limited": 1690, "\u2581individuals": 1691, "\u5c40": 1692, "\u2581war": 1693, "\u2581manner": 1694, "\u4e8b\u52a1": 1695, "\u2581quality": 1696, "\u6848\u4ef6": 1697, "\u2581six": 1698, "\u884c": 1699, "\u2581whole": 1700, ".2": 1701, "AC": 1702, "\u5730\u65b9": 1703, "\u2581recommends": 1704, "\u2581\u4e00": 1705, "\u5176\u4e2d\u5305\u62ec": 1706, "\u2581evidence": 1707, "\u8282": 1708, "\u6761\u7b2c": 1709, "\u2581leave": 1710, "\u5185\u5bb9": 1711, "\u4f9b": 1712, "\u4e00\u79cd": 1713, "\u2581Meeting": 1714, "\u2581commitments": 1715, "AIDS": 1716, "\u2581currently": 1717, "\u2581opportunity": 1718, "\u2581\u8fd9\u662f": 1719, "\u7ed9\u4e88": 1720, "\u72b6\u51b5": 1721, "\u2581thus": 1722, "\u6210": 1723, "\u2581negotiations": 1724, "\u2581T": 1725, "\u2581always": 1726, "\u2581Now": 1727, "\u8fbe": 1728, "\u2581authority": 1729, "\u2581\u662f\u7684": 1730, "\u2581often": 1731, "\u4ece\u800c": 1732, "\u8aaa": 1733, "\u5ba3\u5e03": 1734, "\u2581love": 1735, "\u66f4\u52a0": 1736, "\u2581labour": 1737, "\u2581When": 1738, "\u827e\u6ecb\u75c5": 1739, "\u91cd\u65b0": 1740, "\u673a\u4f1a": 1741, "\u843d\u5b9e": 1742, "K": 1743, "\u4e00\u76f4": 1744, "\u9002\u7528": 1745, "\u79ef\u6781": 1746, "\u2581questions": 1747, "\u2581workers": 1748, "\u2581play": 1749, "\u5e76\u5728": 1750, "\u2581Support": 1751, "\u7684\u4efb\u4f55": 1752, "\u2581increasing": 1753, "\u2581act": 1754, "\u2581Non": 1755, "\u5404\u9879": 1756, "\u2581benefits": 1757, "\u547c\u5401": 1758, "\u2581effect": 1759, "\u91cd\u7533": 1760, "\u2581recognized": 1761, "H": 1762, "\u6b7b": 1763, "\u7f14\u7ea6\u65b9": 1764, "\u258129": 1765, "\u5b9e\u884c": 1766, "\u90e8\u961f": 1767, "\u5b9e\u9645": 1768, "\u2581contribution": 1769, "\u6050\u6016\u4e3b\u4e49": 1770, "\u2581\u8be5": 1771, "\u6587\u5316": 1772, "\u5934": 1773, "\u975e\u6cd5": 1774, "\u2581concerns": 1775, "\u67d0\u4e9b": 1776, "\u2581transfer": 1777, "\u8fdd\u53cd": 1778, "\u901a\u77e5": 1779, "\u2581officials": 1780, "\u5bfc\u81f4": 1781, "\u2581functions": 1782, "\u2581Congo": 1783, "\u5df4": 1784, "\u2581\u4e3a\u4e86": 1785, "\u2581\u597d": 1786, "\u2581Is": 1787, "\u2581alia": 1788, "\u2581referred": 1789, "\u2581entities": 1790, "\u2581submit": 1791, "\u2581forward": 1792, "\u258117.": 1793, "\u6216\u8005": 1794, "\u5f00": 1795, "\u2581name": 1796, "\u2581Crime": 1797, "\u7279\u522b\u62a5\u544a\u5458": 1798, "\u2581remain": 1799, "\u2581Under": 1800, "\u751f\u4ea7": 1801, "\u2581close": 1802, "\u2581thing": 1803, "\u8fbe\u5230": 1804, "\u57ce\u5e02": 1805, "\u2581away": 1806, "\u65e8\u5728": 1807, "2011": 1808, "\u2581young": 1809, "\u4e07": 1810, "\u2581letter": 1811, "\u2581Agreement": 1812, "an": 1813, "\u2581crimes": 1814, "\u2581below": 1815, "\u2581III": 1816, "\u2581crisis": 1817, "\u6570": 1818, "\u2581articles": 1819, "\u529e\u4e8b\u5904": 1820, "\u2581outcome": 1821, "\u2581People": 1822, "\u5e02\u573a": 1823, "\u2581\u4ece": 1824, "\u2581Al": 1825, "\u5173\u6ce8": 1826, "\u2581Code": 1827, "\u258118.": 1828, "\u2581freedom": 1829, "\u5982\u4e0b": 1830, "\u2581presented": 1831, "\u8fdb\u5165": 1832, "\u2581multilateral": 1833, "V": 1834, "\u2581connection": 1835, "\u2581cannot": 1836, "\u8fd9\u662f": 1837, "\u2581remains": 1838, "60": 1839, "\u5e94\u5bf9": 1840, "\u2581integrated": 1841, "\u884c\u52a8\u8ba1\u5212": 1842, "the": 1843, "\u2581\u4e3b\u5e2d": 1844, "\u2581refugees": 1845, "\u8bc4\u4ef7": 1846, "\u2581\u901a\u8fc7": 1847, "\u2581Sudan": 1848, "\u51fa\u73b0": 1849, "\u4eab\u6709": 1850, "\u2581UNCTAD": 1851, "\u2581Some": 1852, "\u2581value": 1853, "\u2581claims": 1854, "\u2581overall": 1855, "\u671f": 1856, "\u91cd": 1857, "\u2581experience": 1858, "\u2581media": 1859, "\u516c\u6c11": 1860, "\u2581informal": 1861, "\u529b": 1862, "\u2581communications": 1863, "\u5371\u673a": 1864, "\u8fd8\u662f": 1865, "\u2581identified": 1866, "\u4fdd\u6301": 1867, "\u2581Annex": 1868, "\u6210\u679c": 1869, "\u2581provisional": 1870, "\u5458\u989d": 1871, "\u25812011": 1872, "\u2581Please": 1873, "\u2581K": 1874, "\u2581Are": 1875, "\u2581conducted": 1876, "\u2581court": 1877, "\u662f\u4e00\u4e2a": 1878, "\u7684\u4e3b\u8981": 1879, "\u624d": 1880, "\u96be\u6c11": 1881, "\u534f\u5546": 1882, "45": 1883, "\u2581exercise": 1884, "\u2581reference": 1885, "\u4e0d\u4f1a": 1886, "\u5168\u56fd": 1887, "\u8bae\u5b9a\u4e66": 1888, "\u9884\u9632": 1889, "\u4e00\u6b21": 1890, "\u5f53": 1891, "related": 1892, "\u7ed3\u675f": 1893, "\u2581purposes": 1894, "\u2581sessions": 1895, "\u4e25\u91cd": 1896, "\u4e00\u8d77": 1897, "\u7684\u52aa\u529b": 1898, "\u827e\u6ecb\u75c5\u6bd2": 1899, "\u5c3d\u7ba1": 1900, "\u201d.": 1901, "\u2581Just": 1902, "\u2581Unit": 1903, "\u5de5\u5177": 1904, "\u2581items": 1905, "\u2581real": 1906, "\u4ecb\u7ecd": 1907, "\u2581preparation": 1908, "\u2581participate": 1909, "\u2581infrastructure": 1910, "\u610f\u89c1": 1911, "\u6761\u6b3e": 1912, "\u2581Regional": 1913, "\u2581paragraphs": 1914, "\u2581changes": 1915, "\u2581pay": 1916, "\u4ece\u4e8b": 1917, "\u5360": 1918, "\u2581conference": 1919, "\u8bc1\u660e": 1920, "st": 1921, "\u2581territory": 1922, "\u7684\u91cd\u8981\u6027": 1923, "\u90fd\u662f": 1924, "\u2581death": 1925, "\u6587": 1926, "\u8be5\u56fd": 1927, "\u258119.": 1928, "\u800c\u8a00": 1929, "\u2581\u867d\u7136": 1930, "\u660e\u786e": 1931, "\u6311\u6218": 1932, "\u2581final": 1933, "\u4ea7\u751f": 1934, "\u2581substantive": 1935, "\u6253\u51fb": 1936, "2012": 1937, "\u5e74\u5ea6": 1938, "\u2581drug": 1939, "\u624b\u6bb5": 1940, "\u2581former": 1941, "\u2581enforcement": 1942, "\u2581governance": 1943, "\u8bb0\u5f55": 1944, "\u2581Europe": 1945, "\u2581\u5c3d\u7ba1": 1946, "\u2581compliance": 1947, "\u56db": 1948, "\u6b64\u7c7b": 1949, "\u751f\u6d3b": 1950, "\u2581officers": 1951, "\u2581power": 1952, "\u5c31\u4e1a": 1953, "\u6b66\u5668": 1954, "\u72ec\u7acb": 1955, "\u4e5f\u662f": 1956, "\u505a\u6cd5": 1957, ".\"": 1958, "\u51c6\u5219": 1959, "\u2581few": 1960, "\u51c6\u5907": 1961, "\u2581views": 1962, "\u2581mind": 1963, "\u2581institutional": 1964, "\u4e24": 1965, "\u5f53\u5730": 1966, "\u2581primary": 1967, "\u7eb3": 1968, "\u7684\u6cd5\u5f8b": 1969, "\u2581ongoing": 1970, "\u8054\u76df": 1971, "\u5f00\u53d1": 1972, "\u5c06\u5728": 1973, "\u2581Protection": 1974, "\u2581achieved": 1975, "\u2581N": 1976, "\u4e2d\u56fd": 1977, "\u7684\u76ee\u6807": 1978, "\u8bae\u4f1a": 1979, "\u2581Section": 1980, "\u2581return": 1981, "\u56fd\u5185": 1982, "\u652f\u4ed8": 1983, "\u2581UNICEF": 1984, "\u2581okay": 1985, "\u4ee5\u6765": 1986, "\u9700\u6c42": 1987, "\u2581\u5927\u4f1a": 1988, "\u2581Health": 1989, "\u2581direct": 1990, "\u5141\u8bb8": 1991, "\u2581Public": 1992, "\u2581internal": 1993, "\u2581resource": 1994, "\u2581safety": 1995, "\u4e88\u4ee5": 1996, "\u2581Institute": 1997, "\u7684\u884c\u4e3a": 1998, "\u2581state": 1999, "\u2581enable": 2000, "\u91c7\u53d6\u884c\u52a8": 2001, "\u2581O": 2002, "\u603b\u7edf": 2003, "\u7ef4\u6301": 2004, "\u804c\u80fd": 2005, "\u2581Japan": 2006, "\u5747": 2007, "\u2581Recalling": 2008, "\u2581Not": 2009, "\u2581judicial": 2010, "\u2581proceedings": 2011, "\u6539\u53d8": 2012, "\u2581detention": 2013, "\u2581indicated": 2014, "\u2581effectively": 2015, "year": 2016, "\u2581See": 2017, "\u258120.": 2018, "\u683c": 2019, "\u73b0\u6709": 2020, "\u258150": 2021, "\u2581integration": 2022, "35": 2023, "\u2581medical": 2024, "\u4ecd": 2025, "\u2581low": 2026, "\u2581combat": 2027, "\u2581less": 2028, "\u2581expert": 2029, "\u2581keep": 2030, "\u2581positive": 2031, "org": 2032, "\u25812012": 2033, "\u5185\u90e8": 2034, "\u2581regions": 2035, "\u9644\u4ef6": 2036, "\u6b63\u5f0f": 2037, "\u2581Agency": 2038, "\u5c0a\u91cd": 2039, "\u52a0\u4ee5": 2040, "\u2581situations": 2041, "\u53ea\u6709": 2042, "\u8303\u56f4": 2043, "\u2581reduce": 2044, "\u62df\u8ba2": 2045, "\u8054\u7cfb": 2046, "\u2581objective": 2047, "\u2581lead": 2048, "\u65e5\u672c": 2049, "\u4e3a\u4e86": 2050, "\u4ebf\u7f8e\u5143": 2051, "\u4e8b\u4ef6": 2052, "\u2581things": 2053, "\u5927\u5b66": 2054, "\u2581Political": 2055, "\u52a0\u62ff\u5927": 2056, "\u7684\u4f5c\u7528": 2057, "\u2581met": 2058, "\u81ea\u5df1\u7684": 2059, "\u6b21\u4f1a\u8bae": 2060, "\u91cf": 2061, "\u2581share": 2062, "\u2581Afghanistan": 2063, "\u66fe": 2064, "\u8fd9\u6837": 2065, "\u2581kind": 2066, "\u7ba1\u5236": 2067, "\u6cd5\u56fd": 2068, "\u8f66": 2069, "\u2581Since": 2070, "\u258121.": 2071, "p": 2072, "\u6b8b\u75be\u4eba": 2073, "\u957f": 2074, "\u53d1\u73b0": 2075, "\u8fdb\u5c55": 2076, ".6": 2077, "\u2581circumstances": 2078, "\u2581initiative": 2079, "\u2581economy": 2080, "\u2581administration": 2081, "\u2581revised": 2082, "\u2581hours": 2083, "\u2581Who": 2084, "\u6301\u7eed": 2085, "\u4e4b\u4e00": 2086, "\u4ee5\u786e\u4fdd": 2087, "\u2581ever": 2088, "\u2581improving": 2089, "\u62c5\u4efb": 2090, "\u53f8": 2091, "\u2581once": 2092, "\u8054\u5408\u56fd\u7cfb\u7edf": 2093, "\u2581centres": 2094, "\u5bf9\u8bdd": 2095, "\u7684\u8d44\u6599": 2096, "\u2581assets": 2097, "\u2581families": 2098, "\u2581higher": 2099, "\u2581{\\": 2100, "\u6750\u6599": 2101, "\u2581hope": 2102, "\u56e0\u7d20": 2103, "\u2581using": 2104, "\u2581active": 2105, "\u5b66\u6821": 2106, "\u5c40\u52bf": 2107, "\u89c4\u5212": 2108, "\u4f19\u4f34": 2109, "\u2581material": 2110, "\u2581Children": 2111, "\u2581Also": 2112, "\u6b21\u4f1a\u8bae\u4e0a": 2113, "\u767b\u8bb0": 2114, "\u2581sorry": 2115, "\u76f8\u5173\u7684": 2116, "\u4f19\u4f34\u5173\u7cfb": 2117, "\u2581effects": 2118, "\u9762": 2119, "\u4e9a": 2120, "\u2581effort": 2121, "\u2581critical": 2122, "\u2581allow": 2123, "\u7684\u4fe1\u606f": 2124, "\u2581benefit": 2125, "\u8c03\u6574": 2126, "\u2581thought": 2127, "\u2581left": 2128, "\u2581Canada": 2129, "\u6b27\u6d32": 2130, "\u7ec4": 2131, "\u603b": 2132, "ers": 2133, "\u9752\u5e74": 2134, "\u98ce\u9669": 2135, "\u7ea6": 2136, "\u2581discussions": 2137, "\u8fd0\u52a8": 2138, "\u6388\u6743": 2139, "\u2581brought": 2140, "\u2581participants": 2141, "\u6700\u4e0d\u53d1\u8fbe\u56fd\u5bb6": 2142, "\u89e3\u91ca": 2143, "\u5b9e\u4f53": 2144, "\u2581un": 2145, "\u2581throughout": 2146, "\u95f4": 2147, "\u2581Go": 2148, "\u6307\u6807": 2149, "\u65e5\u5728": 2150, "\u2581welcomed": 2151, "\u5973": 2152, "\u2581term": 2153, "\u2581First": 2154, "\u2581Services": 2155, "\u2581calls": 2156, "\u7684\u5176\u4ed6": 2157, "\u7edf\u8ba1": 2158, "\u2581Constitution": 2159, "\u884c\u653f": 2160, "\u2581\u6700\u540e": 2161, "\u2581civilian": 2162, "\u6700\u540e": 2163, "\u57fa\u672c": 2164, "\u2581elements": 2165, "\u2581Such": 2166, "\u666e\u904d": 2167, "\u2581prior": 2168, "\u2581indicators": 2169, ".4": 2170, "\u66b4\u529b": 2171, "\u2581b": 2172, "\u2581priorities": 2173, "80": 2174, "\u2581guidance": 2175, "\u2581itself": 2176, "N": 2177, "\u2581Goals": 2178, "\u2581stakeholders": 2179, "\u8bbe\u65bd": 2180, "\u7684\u51b3\u5b9a": 2181, "\u5217\u5165": 2182, "\u53d7\u5bb3\u8005": 2183, "\u2581night": 2184, "\u2581please": 2185, "\u2581\u4f60\u4eec": 2186, "\u519c\u4e1a": 2187, "\u5c81": 2188, "\u2581effectiveness": 2189, "\u4e24\u5e74\u671f": 2190, "\u592a": 2191, "\u2581Environment": 2192, "\u51b3\u8bae\u8349\u6848": 2193, "\u91d1": 2194, "\u2581live": 2195, "\u2581Force": 2196, "\u2581ways": 2197, "\u8003\u8651\u5230": 2198, "\u2581\u6211\u60f3": 2199, "\u5c5e\u4e8e": 2200, "\u63d0\u4ea4\u4eba": 2201, ".5": 2202, "\u2581debt": 2203, "\u2581sure": 2204, "\u8bbf\u95ee": 2205, "man": 2206, "\u2581\u73b0\u5728": 2207, "\u2581torture": 2208, "\u589e\u957f": 2209, "\u2581Can": 2210, "\u7684\u8981\u6c42": 2211, "\u258140": 2212, "\u2581sources": 2213, "\u2581Caribbean": 2214, "\u2581\u54e6": 2215, "\u5b97\u6559": 2216, "\u258122.": 2217, "\u2581sectors": 2218, "\u7387": 2219, "\u63d0\u8bae": 2220, "\u2581Countries": 2221, "\\": 2222, "\u2581Good": 2223, "\u2581team": 2224, "70": 2225, "\u9002\u5f53\u7684": 2226, "\u2581achieving": 2227, "\u7533\u8bf7": 2228, "\u5854": 2229, "\u53cd\u5bf9": 2230, "\u2581outside": 2231, "\u5c1a\u672a": 2232, "\u2581anything": 2233, "\u2581whose": 2234, "\u2581poor": 2235, "\u6838": 2236, "\u25812005,": 2237, "\u2581strong": 2238, "\u2581hand": 2239, "\u2581\u597d\u5427": 2240, "\u6ee1\u8db3": 2241, "\u2581debate": 2242, "\u2581regulations": 2243, "\u2581collaboration": 2244, "\u6536\u5230": 2245, "\u2581terrorist": 2246, "\u90e8\u7f72": 2247, "\u2581require": 2248, "\u2581Peace": 2249, "\u91c7\u8d2d": 2250, "\u63d0\u51fa\u4e86": 2251, "\u4e00\u4efd": 2252, "\u7684\u610f\u89c1": 2253, "\u2581Get": 2254, "responsibilities": 2255, "\u2581abuse": 2256, "\u6848": 2257, "\u56fd\u9645\u6cd5": 2258, "\u51fa\u53e3": 2259, "\u2581face": 2260, "\u2581Party": 2261, "\u7684\u5408\u4f5c": 2262, "`": 2263, "\u2581legislative": 2264, "\u4e00\u540d": 2265, "\u51b3\u8bae": 2266, "\u5e73\u7b49": 2267, "\u2581transport": 2268, "able": 2269, "\u2581comments": 2270, "\u57fa": 2271, "\u56f0\u96be": 2272, "\u2581disabilities": 2273, "\u2581claim": 2274, "\u5728\u5185\u7684": 2275, "\u2581rates": 2276, "\u7f16\u5236": 2277, "\u6761\u4f8b": 2278, "\u2581\u4e0d\u8fc7": 2279, "\u7f57": 2280, "\u7684\u673a\u4f1a": 2281, "\u2581Korea": 2282, "\u4eba\u4eec": 2283, "\u4e66": 2284, "\u2581Requests": 2285, "\u5e03": 2286, "\u2581Look": 2287, "\u2581addressing": 2288, "\u6784\u6210": 2289, "\u2581appreciation": 2290, "\u2581old": 2291, "\u2581Your": 2292, "\u2581range": 2293, "\u518d\u6b21": 2294, "\u4e0d\u65ad": 2295, "\u662f\u5728": 2296, "\u258123.": 2297, "37": 2298, "\u652f\u51fa": 2299, "\u2581table": 2300, "\u7a7a\u95f4": 2301, "\u2581twenty": 2302, "\u2581technologies": 2303, "\u8fd0\u8f93": 2304, "\u2581invited": 2305, "\u7ed3\u6784": 2306, "\u94f6\u884c": 2307, "\u2581introduced": 2308, "\u2581developments": 2309, "\u6d77": 2310, "\u5403": 2311, "\u2581continues": 2312, "\u2581Foreign": 2313, "\u627e\u5230": 2314, "\u25812006,": 2315, "O": 2316, "\u5b89": 2317, "as": 2318, "\u2581deal": 2319, ".3": 2320, "\u95ee\u9898\u7684": 2321, "\u2581travel": 2322, "\u4fdd\u5065": 2323, "\u2581scope": 2324, "\u2581operation": 2325, "\u673a": 2326, "\u76f8": 2327, "\u2581India": 2328, "\u2581either": 2329, "\u2581obligation": 2330, "\u6027\u522b": 2331, "\u2581interests": 2332, "\u8bbe\u5907": 2333, "\u2581themselves": 2334, "\u2581seen": 2335, "\u4e00\u5207": 2336, "\u8fc5\u901f": 2337, "0": 2338, "2013": 2339, "\u8bae\u7a0b": 2340, "\u7684\u4ee3\u8868": 2341, "\u2581estimated": 2342, "\u2581elections": 2343, "\u2581sixty": 2344, "\u2581fight": 2345, "\u8bae\u7a0b\u9879\u76ee": 2346, "\u2581told": 2347, "\u4e8b\u9879": 2348, "\u2581extent": 2349, "\u6b64": 2350, "\u2581continuing": 2351, "\u963f\u5bcc\u6c57": 2352, "\u5168": 2353, "\u2581soon": 2354, "\u2581periodic": 2355, "\u2581vulnerable": 2356, "\u4ed6\u7684": 2357, "\u8ba4\u8bc6\u5230": 2358, "\u2581activity": 2359, "\u2581Discrimination": 2360, "\u2581later": 2361, "\u6b64\u79cd": 2362, "\u6bcf\u5e74": 2363, "\u2581Civil": 2364, "\u2581coming": 2365, "3.": 2366, "\u2581peaceful": 2367, "\u5fb7\u56fd": 2368, "\u8865\u5145": 2369, "\u25812002,": 2370, "\u2581Sustainable": 2371, "\u25812,": 2372, "\u2581delivery": 2373, "\u258124.": 2374, "\u2581associated": 2375, "\u2581universal": 2376, "\u2581specialized": 2377, "\u2581Administrative": 2378, "\u79fb\u6c11": 2379, "\u4e0d\u5f97": 2380, "33": 2381, "\u2581materials": 2382, "\u2581threat": 2383, "ation": 2384, "\u4e94": 2385, "\u2581asked": 2386, "\u8d39": 2387, "\u4e34\u65f6": 2388, "\u4e00\u4e0b": 2389, "\u6b67\u89c6": 2390, "\u2581\u8981": 2391, "\u2581goods": 2392, "\u2581voluntary": 2393, "\u2581co": 2394, "\u266a": 2395, "\u2581Headquarters": 2396, ".7": 2397, "\u6574\u4e2a": 2398, "\u4e00\u822c": 2399, "\u5370\u5ea6": 2400, "Rev": 2401, "\u5355\u4f4d": 2402, "\u2581according": 2403, "\u9019": 2404, "\u2581relation": 2405, "\u2581transition": 2406, "\u2581France": 2407, "\u7684\u65f6\u5019": 2408, "\u8d44\u4ea7": 2409, "\u2581includes": 2410, "\u2581\u4f8b\u5982": 2411, "\u25812003,": 2412, "\u8fd9\u7c7b": 2413, "\u8428": 2414, "\u2581By": 2415, "\u6ca1": 2416, "\u2581Disarmament": 2417, "77": 2418, "\u2581identify": 2419, "\u25812004,": 2420, "\u5374": 2421, "\u2581According": 2422, "\u5927\u4f1a\u7b2c": 2423, "\u4f4e": 2424, "\u2581Draft": 2425, "36": 2426, "\u2581plenary": 2427, "\u25811,": 2428, "\u5973\u6027": 2429, "\u76d1\u7763": 2430, "\u2581create": 2431, "\u91cd\u5927": 2432, "\u5728\u8fd9\u65b9\u9762": 2433, "\u2581sub": 2434, "\u25812007,": 2435, "\u2581Child": 2436, "\u663e\u793a": 2437, "\u53cd": 2438, "\u4eba\u6570": 2439, "\u4ea4\u6d41": 2440, "\u2581encourage": 2441, "\u2581apply": 2442, "\u2581treaties": 2443, "\u6709\u52a9\u4e8e": 2444, "39": 2445, "\u2581capital": 2446, "\u2581Second": 2447, "\u2581show": 2448, "\u7c73": 2449, "\u2581rather": 2450, "\u2581thank": 2451, "\u6c34\u5e73": 2452, "\u8d22\u4ea7": 2453, "\u5feb": 2454, "\u8ddf": 2455, "\u2581aid": 2456, "\u2581schools": 2457, "\u79d1\u5b66": 2458, "\u2581hold": 2459, "\u258125.": 2460, "\u68ee\u6797": 2461, "\u5bfb\u6c42": 2462, "j": 2463, "\u2581\u6211\u8981": 2464, "\u2581methods": 2465, "\u8001": 2466, "\u2581\u4ec0\u4e48": 2467, "48": 2468, "\u2581talk": 2469, "\u2581won": 2470, "\u5b66": 2471, "\u4eca\u540e": 2472, "\u2581Education": 2473, "\u2581Pacific": 2474, "\u2581maintenance": 2475, "\u6765\u8bf4": 2476, "\u4fee\u6539": 2477, "\u2581contract": 2478, "\u4ee5\u82f1\u8bed\u53d1\u8a00": 2479, "\u2581partnership": 2480, "\u5065\u5eb7": 2481, "\u2581c": 2482, "\u2581THE": 2483, "\u7ecf\u5e38": 2484, "\u672c\u56fd": 2485, "\u5371\u9669": 2486, "\u5df4\u52d2\u65af\u5766": 2487, "\u2581Great": 2488, "\u25812008,": 2489, "90": 2490, "\u4ed6\u5011": 2491, "\u2581Joint": 2492, "\u4fee\u8ba2": 2493, "\u25811997": 2494, "\u2581establishing": 2495, "\u2581difficult": 2496, "\u2581violation": 2497, "\u2581understand": 2498, "\u2581paid": 2499, "\u2581displaced": 2500, "\u2581supporting": 2501, "\u25812013": 2502, "\u8fc7\u7a0b\u4e2d": 2503, "\u2581stability": 2504, "\u4eec": 2505, "\u56de": 2506, "\u7a0b\u5ea6": 2507, "\u571f\u5730": 2508, "\u7269": 2509, "\u2581events": 2510, "\u2581destruction": 2511, "making": 2512, "\u8054\u90a6": 2513, "\u2581100": 2514, "le": 2515, "\u516c": 2516, "\u2581UNHCR": 2517, "\u4f4f": 2518, "\u2581Room": 2519, "\u2581Cuba": 2520, "\u505a\u51fa": 2521, "\u2581relations": 2522, "\u2581e": 2523, "\u7edf\u4e00": 2524, "\u5404\u65b9": 2525, "\u536b\u751f": 2526, "\u2581adopt": 2527, "\u2581Furthermore": 2528, "\u5b9a\u671f": 2529, "\u2581move": 2530, "\u4eba\u7c7b": 2531, "\u53ea\u662f": 2532, "\u5f62\u5f0f": 2533, "\u2581nothing": 2534, "\u2581job": 2535, "\u258126.": 2536, "\u4efb\u62e9\u8bae\u5b9a\u4e66": 2537, "\u2581build": 2538, "\u8fd9\u9879": 2539, "\u2581Prevention": 2540, "\u2581Thank": 2541, "\u2581encouraged": 2542, "\u5165": 2543, "\u68c0\u67e5": 2544, "\u25812001,": 2545, "\u5e26": 2546, "\u4efd": 2547, "\u80fd\u6e90": 2548, "\u74e6": 2549, "\u5a92\u4f53": 2550, "\u2581anti": 2551, "\u25812000,": 2552, "\u2581American": 2553, "\u2581opinion": 2554, "\u2581follows": 2555, "\u80a1": 2556, "2.": 2557, "\u7684\u65b0": 2558, "\u2581balance": 2559, "\u50cf": 2560, "\u589e\u5f3a": 2561, "el": 2562, "\u7684\u8d23\u4efb": 2563, "\u2581came": 2564, "\u2581heard": 2565, "\u2581applicable": 2566, "\u2581directly": 2567, "\u2581Mexico": 2568, "\u2581sent": 2569, "\u7acb\u5373": 2570, "\u82e5\u5e72": 2571, "\u2581Latin": 2572, "\u7684\u63aa\u65bd": 2573, "1997": 2574, "\u7684\u4efb\u52a1": 2575, "\u2581consensus": 2576, "\u2581Iran": 2577, "\u2581improved": 2578, "49": 2579, "\u4ed6\u4eec\u7684": 2580, "\u2581fund": 2581, "\u7f16\u5199": 2582, "\u2581jurisdiction": 2583, "\u2581consultation": 2584, "\u6210\u529f": 2585, "\u2581Persons": 2586, "\u522b": 2587, "\u8fea": 2588, "\u2581compensation": 2589, "\u624d\u80fd": 2590, "\u2581similar": 2591, "\u7684\u4e00\u90e8\u5206": 2592, "\u81f4\u529b\u4e8e": 2593, "\u2581creation": 2594, "34": 2595, "\u2581applied": 2596, "\u2581start": 2597, "\u2581emergency": 2598, "\u201d\u3002": 2599, "\u63d0\u5230": 2600, "\u2581actors": 2601, "\u6709\u6743": 2602, "\u2581\u8bae\u7a0b\u9879\u76ee": 2603, "\u627f\u62c5": 2604, "\u96c6\u56e2": 2605, "\u2581hear": 2606, "\u7f14\u7ea6\u65b9\u4f1a\u8bae": 2607, "\u611f\u8c22": 2608, "\u5148": 2609, "\u2581complete": 2610, "\u7ecf\u8d39": 2611, "\u8fdb\u884c\u7684": 2612, "\u2581J": 2613, "\u2581investigation": 2614, "\u2581conferences": 2615, "\u2581achievement": 2616, "\u2581illicit": 2617, "\u258127.": 2618, "\u2581positions": 2619, "\u76ee\u7684": 2620, "\u2581Right": 2621, "\u2581UNEP": 2622, "\u6709\u5fc5\u8981": 2623, "\u5458": 2624, "\u603b\u90e8": 2625, "\u2581paper": 2626, "\ue019": 2627, "\u2581Optional": 2628, "\u516c\u5171": 2629, "\u6d3e": 2630, "\u7684\u884c\u52a8": 2631, "\u57fa\u4e8e": 2632, "\u539f\u56e0": 2633, "\u5bf9\u5176": 2634, "\u9053": 2635, "\u7535\u8bdd": 2636, "\u906d\u53d7": 2637, "\u2581pre": 2638, "\u2581regime": 2639, "\u79f0": 2640, "J": 2641, "\u4fb5\u72af": 2642, "\u2581Islamic": 2643, "\u2581receive": 2644, "\u2581\u522b": 2645, "\u2581physical": 2646, "\u2581\u4e8c": 2647, "\u2581central": 2648, "\u2581distribution": 2649, "\u2581language": 2650, "\u2581\u9019": 2651, "38": 2652, "\u2581Syrian": 2653, "\u5de5\u4f5c\u7684": 2654, "\u2581Table": 2655, "\u2581religious": 2656, "\u2581Of": 2657, "CP": 2658, "\u53e4\u5df4": 2659, "\u2581respective": 2660, "\u5e74\u671f\u95f4": 2661, "\u5343\u5e74\u53d1\u5c55\u76ee\u6807": 2662, "\u6a21\u5f0f": 2663, "\u7684\u7ed3\u679c": 2664, "\u800c\u4e0d\u662f": 2665, "\u2581air": 2666, "\u2581\u6211\u662f": 2667, "\u8def": 2668, "\u2581reached": 2669, "\u66f4\u591a": 2670, "\u25811990": 2671, "\u2581led": 2672, "\u907f\u514d": 2673, "\u53ca\u65f6": 2674, "\u4f0a": 2675, "\u6b7b\u4ea1": 2676, "\u4ef7\u503c": 2677, "\u2581practical": 2678, ".8": 2679, "\u2581times": 2680, "\u2581\u9274\u4e8e": 2681, "55": 2682, "\u2581loss": 2683, "\u5ba1\u8ba1": 2684, "\u5171\u548c\u56fd": 2685, "\u8d38\u53d1\u4f1a\u8bae": 2686, "\u2581products": 2687, "\u2581Elimination": 2688, "\u5730\u4f4d": 2689, "\u2581Kosovo": 2690, "\u2581citizens": 2691, "\u8054": 2692, "\u5404\u56fd\u653f\u5e9c": 2693, "\u5229\u76ca": 2694, "ro": 2695, "\u2581concluded": 2696, "R": 2697, "6.": 2698, "\u2581points": 2699, "\u2581across": 2700, "32": 2701, "\u5dde": 2702, "\u2581partnerships": 2703, "\u2581implications": 2704, "\u2581\u6240\u4ee5": 2705, "\u2581economies": 2706, "\u2581housing": 2707, "\u2581feel": 2708, "\u7684\u8bdd": 2709, "\u258128.": 2710, "\u2581Lebanon": 2711, "\u2581conflicts": 2712, "\u53ef\u6301\u7eed\u53d1\u5c55": 2713, "\u53e3": 2714, "\u9886\u571f": 2715, "\u53f7\u51b3\u8bae\u7b2c": 2716, "4.": 2717, "\u7684\u505a\u6cd5": 2718, "\u2581Germany": 2719, "\u884c\u4f7f": 2720, "\u2581permanent": 2721, "\u8bc1\u636e": 2722, "\u6069": 2723, "\u2581bilateral": 2724, "1.": 2725, "\u88c1\u519b": 2726, "\u2581structure": 2727, "\u7d22\u8d54": 2728, "\u2581courts": 2729, "\u57fa\u7840\u8bbe\u65bd": 2730, "\u56e2\u4f53": 2731, "\u4ee5\u524d": 2732, "\u7834\u574f": 2733, "\u58f0\u660e": 2734, "\u2581youth": 2735, "\u59c6": 2736, "\u2581West": 2737, "\u5357": 2738, "\u4e3e\u63aa": 2739, "\u2581seek": 2740, "\u2581carry": 2741, "\u2581\u563f": 2742, "\u5de5\u4e1a": 2743, "\u2581Coordination": 2744, "\u2581factors": 2745, "\u2581standard": 2746, "\u2581Vienna": 2747, "\u2581words": 2748, "\u2581consistent": 2749, "\u2581core": 2750, "\u4f4d": 2751, "\u79bb\u5f00": 2752, "\u2581reflected": 2753, "\u4ea7\u54c1": 2754, "\u2581Ireland": 2755, "\u2581judges": 2756, "at": 2757, "\u2581accountability": 2758, "\u2581Middle": 2759, "ii": 2760, "\u2581\u8fd8": 2761, "\u2581half": 2762, "\u2581leaders": 2763, "\u4e14": 2764, "\u2581signed": 2765, "\u2581illegal": 2766, "\u2581Territory": 2767, "\u635f\u5931": 2768, "\u2581enough": 2769, "1996": 2770, "\u2581procurement": 2771, "-4": 2772, "\u2581completed": 2773, "\u2581Administration": 2774, "\u2581dollars": 2775, "us": 2776, "\u7684\u653f\u7b56": 2777, "first": 2778, "\u9ece\u5df4\u5ae9": 2779, "\u2581initial": 2780, "\u63d0": 2781, "\u2581settlement": 2782, "\u2581ground": 2783, "\u8303\u56f4\u5185": 2784, "46": 2785, "\u2581states": 2786, "\u7a33\u5b9a": 2787, "\u2581raised": 2788, "\u2581submission": 2789, "\u2581girl": 2790, "\u2581serve": 2791, "\u2581head": 2792, "\u7279\u522b\u662f\u5728": 2793, "\u2581\u81ea": 2794, "\u8d85\u8fc7": 2795, "\u2581parts": 2796, "\u7f8e": 2797, "\u53eb": 2798, "\u4eba\u9053\u4e3b\u4e49": 2799, "\u2581reasons": 2800, "\u58a8\u897f\u54e5": 2801, "\u25811995": 2802, "5.": 2803, "\u4f4f\u623f": 2804, "\u8fd8\u6709": 2805, "\u9875": 2806, "\u2581efficiency": 2807, "\u258129.": 2808, "\u2581French": 2809, "\u2581Nuclear": 2810, "\u6bcf": 2811, "\u7ecf\u6d4e\u53ca\u793e\u4f1a\u7406\u4e8b\u4f1a": 2812, "\u2581requires": 2813, "\u7684\u53d1\u5c55": 2814, "\u2581house": 2815, "\u4f1a\u8bae\u5ba4": 2816, "\u867d\u7136": 2817, "\u2581short": 2818, "\u5171": 2819, "\u548c\u7b2c": 2820, "\u2581step": 2821, "\u6587\u4e66": 2822, "\u2581majority": 2823, "\u6700\u7ec8": 2824, "\u5ba3\u4f20": 2825, "\u2581beyond": 2826, "\u2581Guinea": 2827, "\u76d1\u72f1": 2828, "\u6258": 2829, "\u5149": 2830, "\u2581record": 2831, "\u65e5\u548c": 2832, "\u2581created": 2833, "\u2581detailed": 2834, "\u2581successful": 2835, "\u67e5\u660e": 2836, "\u7701": 2837, "\u2581room": 2838, "\u4fe1": 2839, "\u8eab": 2840, "\u2581leadership": 2841, "\u2581approaches": 2842, "\u2581exploitation": 2843, "\u571f\u8457\u4eba\u6c11": 2844, "\u5982\u6b64": 2845, "\u2581along": 2846, "\u4eca\u5929": 2847, "The": 2848, "\u2581\u6ca1\u6709": 2849, "\u2581challenge": 2850, "\u2581capacities": 2851, "\u53cc\u65b9": 2852, "\u2581maintain": 2853, "\u2581instrument": 2854, "\u2581covered": 2855, "\u2581IV": 2856, "\u2581\u8fd9\u4e00": 2857, "\u258130.": 2858, "\u6838\u51c6": 2859, "\u627e": 2860, "\u2581OF": 2861, "\u60c5\u51b5\u4e0b": 2862, "\u2581sufficient": 2863, "\u7ba1": 2864, "\u53d8\u5316": 2865, "\u4fc4\u7f57\u65af\u8054\u90a6": 2866, "\u2581subregional": 2867, "\u7814\u8ba8\u4f1a": 2868, "\u5546\u4e1a": 2869, "\u2581\u6ce8\u610f\u5230": 2870, "\u2581stop": 2871, "it": 2872, "-3": 2873, "\u4efb\u547d": 2874, "\u95e8": 2875, "\u7ef4\u62a4": 2876, "\u2581goal": 2877, "\u6bcf\u4e2a": 2878, "W": 2879, "\u5206\u914d": 2880, "\u8fc7\u53bb": 2881, "\u56fe": 2882, "\u2581civilians": 2883, "\u6307\u5bfc": 2884, "\u2581trust": 2885, "\u5b66\u4e60": 2886, "\u2581educational": 2887, "\u4e13\u95e8": 2888, "\u96f7": 2889, "\u2581side": 2890, "\u8fd9\u6837\u505a": 2891, "\u2581event": 2892, "\u2581temporary": 2893, "\u5ba1\u5224": 2894, "\u2581presence": 2895, "\u8d22\u52a1": 2896, "\u2581\u8868": 2897, "\u4e3b": 2898, "\u505c\u6b62": 2899, "\u2581Re": 2900, "\u5fc5\u8981\u7684": 2901, "\u2581sanctions": 2902, ".9": 2903, "\u2581welcome": 2904, "\u5e7f\u6cdb": 2905, "\u2581woman": 2906, "\u2581supply": 2907, "\u5b69\u5b50": 2908, "\u2581cover": 2909, "\u672c\u7ec4\u7ec7": 2910, "\u901a\u8fc7\u4e86": 2911, "\u2581remained": 2912, "\u2581advice": 2913, "\u2581Brazil": 2914, "\u901a": 2915, "\u2581Legal": 2916, "\u2581consequences": 2917, "\u8d2b\u7a77": 2918, "\u2581Then": 2919, "\u2581disaster": 2920, "\u2581discussed": 2921, "\u2581expenditure": 2922, "\u5668": 2923, "\u4e0d\u4ec5": 2924, "ar": 2925, "\u901a\u5e38": 2926, "\u8054\u5408\u56fd\u5baa\u7ae0": 2927, "\u5efa\u7acb\u4e00\u4e2a": 2928, "\u5979\u4eec": 2929, "\u2581safe": 2930, "\u54c8": 2931, "\u7d27\u6025": 2932, "\u2581Australia": 2933, "\u2581Chief": 2934, "\u2581external": 2935, "\u7ad9": 2936, "\u2581counter": 2937, "\u6fb3\u5927\u5229\u4e9a": 2938, "\u4f9d\u7167": 2939, "\u25811996": 2940, "\u2581female": 2941, "\u2581\u4e09": 2942, "\u2581guy": 2943, "\u2581Note": 2944, "\u8d77\u6765": 2945, "\u2581ethnic": 2946, "\u2581task": 2947, "\u6240\u6d89": 2948, "\u8bb2\u4e60\u73ed": 2949, "\u6b27\u6d32\u8054\u76df": 2950, "\u2581\u5982": 2951, "\u5df4\u897f": 2952, "\u2581\u9879\u76ee": 2953, "\u2581Although": 2954, "and": 2955, "\u666e": 2956, "\u5f8b\u5e08": 2957, "\u4e0d\u8981": 2958, "\u7684\u9879\u76ee": 2959, "\u987e\u95ee": 2960, "\u8d54\u507f": 2961, "\u2581reason": 2962, "\u2581Community": 2963, "\u2581Those": 2964, "\u2581resulting": 2965, "\u2581suggested": 2966, "\u2581urban": 2967, "\u2581Item": 2968, "\u4f60\u5011": 2969, "\u7ebf": 2970, "ic": 2971, "\u81f3\u5c11": 2972, "\u4ea4\u6613": 2973, "\u771f": 2974, "\u2581Operations": 2975, "\u2581recovery": 2976, "\u81f3\u5173\u91cd\u8981": 2977, "\u8457": 2978, "\u258131.": 2979, "\u2581read": 2980, "\u7231": 2981, "\u5b98\u5458": 2982, "\u2581single": 2983, "\u2581mandates": 2984, "\u7ea7": 2985, "\u6cbb\u7597": 2986, "\u7d22\u9a6c\u91cc": 2987, "\u9002\u7528\u4e8e": 2988, "\u516d": 2989, "\u2581observations": 2990, "\u2581Inter": 2991, "\u4f9b\u5e94": 2992, "\u2581demand": 2993, "\u4e0d\u5e94": 2994, "\u2581monitor": 2995, "\u82cf\u4e39": 2996, "\u5e02": 2997, "\u2581clearly": 2998, "\u56fd\u9645\u7ec4\u7ec7": 2999, "\u2581although": 3000, "\u7814\u7a76\u6240": 3001, "\u989d": 3002, "am": 3003, "\u6218\u4e89": 3004, "\u2581everything": 3005, "SR": 3006, "\u6c14\u5019\u53d8\u5316": 3007, "\u63a5\u89e6": 3008, "\u7f51": 3009, "\u66f4\u591a\u7684": 3010, "\u5916\u56fd": 3011, ":(": 3012, "\u2581Did": 3013, "1990": 3014, "\u6d77\u6d0b": 3015, "\u8fd1": 3016, "\u613f\u610f": 3017, "\u2581Pakistan": 3018, "\u2581Sierra": 3019, "\u5f00\u53d1\u7f72": 3020, "\u6536\u96c6": 3021, "\u0438": 3022, "\u65b0\u95fb": 3023, "\u2581welcomes": 3024, "\u6838\u6b66\u5668": 3025, "\u2581recently": 3026, "\u7537\u5973": 3027, "\u5df4\u57fa\u65af\u5766": 3028, "8.": 3029, "\u91c7\u53d6\u63aa\u65bd": 3030, "\u4e3b\u7ba1": 3031, "\u258132.": 3032, "\u2581involving": 3033, "\u2581audit": 3034, "\u2581Here": 3035, "\u2581lives": 3036, "\u2581\u4f1a\u8bae": 3037, "\u2581scientific": 3038, "\u8fc7\u7a0b": 3039, "\u6e05\u5355": 3040, "\u4ee5\u540e": 3041, "\u2581criteria": 3042, "\u90a3\u4e48": 3043, "\u2581Federal": 3044, "\u5e93": 3045, "\u2581killed": 3046, "\u6709\u6548\u7684": 3047, "\u2581culture": 3048, "\u4e0d\u8db3": 3049, "\u83b7\u53d6": 3050, "1995": 3051, "\u897f\u73ed\u7259": 3052, "\u2581designed": 3053, "\u7f6a": 3054, "\u2581duty": 3055, "100": 3056, "\u4e4b\u5916": 3057, "7.": 3058, "\u7684\u4e8b": 3059, "\u2581\u76ee\u524d": 3060, "\u2581timely": 3061, "\u2581traditional": 3062, "\u513f\u7ae5\u57fa\u91d1\u4f1a": 3063, "\u6743\u529b": 3064, "42": 3065, "\u2581donors": 3066, "\u5236": 3067, "\u2581border": 3068, "\u2581statistics": 3069, "\u2581mentioned": 3070, "\u2581solution": 3071, "\u2581mother": 3072, "\u4f20\u64ad": 3073, "\u7684\u6267\u884c\u60c5\u51b5": 3074, "\u904e": 3075, "\u2581relationship": 3076, "\u2581focused": 3077, "\u539f": 3078, "\u2581entry": 3079, "\u2581source": 3080, "\u4e09\u4e2a": 3081, "\u2581average": 3082, "\u2581Somalia": 3083, "\u751f\u6548": 3084, "\u2581\u0438": 3085, "\u2581transparency": 3086, "\u2581Leone": 3087, "\u62d2\u7edd": 3088, "57": 3089, "\u5927\u91cf": 3090, "\u503a\u52a1": 3091, "\u6559": 3092, "\u258160": 3093, "U": 3094, "\u9886\u5bfc": 3095, "\u258133.": 3096, "\u2581Labour": 3097, "\u2581longer": 3098, "\u2581Moreover": 3099, "\u2581v": 3100, "\u2581visit": 3101, "\u2581sir": 3102, "\u7406\u7531": 3103, "\u2581UNFPA": 3104, "\u2581sex": 3105, "United": 3106, "\u73b0\u8c61": 3107, "\u9080\u8bf7": 3108, "\u2581languages": 3109, "\u2581guys": 3110, "\u2581Police": 3111, "44": 3112, "\u7684\u513f\u7ae5": 3113, "\u77e5\u8bc6": 3114, "\u5c24\u5176": 3115, "\u6709\u53ef\u80fd": 3116, "\u2581\u8fd9\u4e2a": 3117, "\u2581network": 3118, "\u2581Weapons": 3119, "\u7684\u539f\u5219": 3120, "\u2581father": 3121, "\u2581aim": 3122, "\u2581phase": 3123, "is": 3124, "\u4fe1\u6258\u57fa\u91d1": 3125, "\u2581stressed": 3126, "\u52a8": 3127, "\u5440": 3128, "\u2581studies": 3129, "\u2581lot": 3130, "\u9762\u4e34": 3131, "\u2581Kuwait": 3132, "\u2581\u79d8\u4e66\u957f": 3133, "\u5de5": 3134, "ity": 3135, "\u2581independence": 3136, "\u2581wrong": 3137, "\u2581Further": 3138, "\u2581units": 3139, "\u63d0\u4f9b\u7684": 3140, "\u5173\u5207": 3141, "\u2581El": 3142, "\u653e": 3143, "\u2581Rules": 3144, "\u4e0a\u7684": 3145, "\u2581stage": 3146, "\u2581Association": 3147, "\u67e5": 3148, "\u4ec5": 3149, "\u2581construction": 3150, "\u672c\u8eab": 3151, "\u2581billion": 3152, "\u7fa4\u4f53": 3153, "\u6570\u91cf": 3154, "\u2581wanted": 3155, "\u5ea6": 3156, "\u94b1": 3157, "\u635f\u5bb3": 3158, "\u6c11\u65cf": 3159, "\u2581Financial": 3160, "\u7ebd\u7ea6": 3161, "\u5e76\u5c06": 3162, "\u2581Members": 3163, "\u4e13\u4e1a": 3164, "\u6709\u4eba": 3165, "\u258134.": 3166, "\u672a\u80fd": 3167, "\u964d\u4f4e": 3168, "\u4e13\u9898": 3169, "\u5e38": 3170, "\u516c\u5f00": 3171, "\u5efa\u8bbe": 3172, "\u52d2": 3173, "\u2581urgent": 3174, "\u7535\u5b50": 3175, "\u5730\u70b9": 3176, "\u8d2b\u56f0": 3177, "\u2581Palestine": 3178, "\u79c1\u8425\u90e8\u95e8": 3179, "\u4f30\u8ba1": 3180, "\u2581multi": 3181, "\u2581conclusion": 3182, "\u571f\u8033\u5176": 3183, "\u2581movement": 3184, "\u2581formal": 3185, "\u95ee": 3186, "\u60a8": 3187, "\u2581deployment": 3188, "\u4ee5\u4e0a": 3189, "\u2581mass": 3190, "\u2581\u5feb": 3191, "\u2581involvement": 3192, "\u7684\u5404\u9879": 3193, "\u2022": 3194, "\u2581Authority": 3195, "\u6216\u5176\u4ed6": 3196, "\u2581approval": 3197, "\u7f6a\u884c": 3198, "\u2581cross": 3199, "\u5341\u5e74": 3200, "\u2581enhancing": 3201, "\u4f18\u5148": 3202, "\u2581success": 3203, "\u2581UNIDO": 3204, "69": 3205, "\u2581turn": 3206, "\u5c0f\u7ec4\u59d4\u5458\u4f1a": 3207, "\u76f8\u4fe1": 3208, "\u7406\u89e3": 3209, "\u2581Space": 3210, "\u7b2c\u4e8c": 3211, "\u5341\u5206": 3212, "\u770b\u5230": 3213, "\u706b": 3214, "\u5e76\u4e0d": 3215, "\u2581Strategy": 3216, "\u519b": 3217, "\u804c\u4f4d": 3218, "\u5ba4": 3219, "\u2581\u91cd\u7533": 3220, "\u660e": 3221, "\u2581intended": 3222, "\u8ba1\u7b97": 3223, "\u2581tools": 3224, "\u2581honour": 3225, "\u2581conclusions": 3226, "\u2581alternative": 3227, "\u987b": 3228, "\u2581summary": 3229, "\u2581reflect": 3230, "\u4ea4": 3231, "\u2581takes": 3232, "\u7c7b": 3233, "\u2581host": 3234, "\u2581reach": 3235, "\u2581appeal": 3236, "\u2581freedoms": 3237, "47": 3238, "\u5409": 3239, "\u610f\u5927\u5229": 3240, "\u2013": 3241, "\u4f3c\u4e4e": 3242, "\u2581occupation": 3243, "\u592b": 3244, "\u6211\u4eec\u7684": 3245, "\u5973\u5b69": 3246, "\u5f00\u53d1\u8ba1\u5212\u7f72": 3247, "\u7b7e\u7f72": 3248, "\u258135.": 3249, "\u2581ask": 3250, "\u79d1\u5a01\u7279": 3251, "\u7684\u627f\u8bfa": 3252, "ir": 3253, "\u2581personal": 3254, "\u745e\u58eb": 3255, "\u2581\u6b22\u8fce": 3256, "\u969c\u788d": 3257, "\u25812009,": 3258, "\u2581Chair": 3259, "\u8f6c": 3260, "-2": 3261, "\u2581electronic": 3262, "\u9ede": 3263, "\u5b66\u751f": 3264, "\u7cbe\u795e": 3265, "\u6bd4\u8f83": 3266, "\u2581\u4e00\u4e2a": 3267, "\u2581encourages": 3268, "\u2581Technical": 3269, "\u62ff": 3270, "\u2581late": 3271, "\u2581doesn": 3272, "\u8bed": 3273, "\u57c3\u53ca": 3274, "\u2581commercial": 3275, "\u89c4\u5b9a\u7684": 3276, "\u961f": 3277, "\u8f6c\u8ba9": 3278, "\u2581\u6211\u7684": 3279, "\u2581Third": 3280, "\u2581\u8fd9\u79cd": 3281, "\u2581assessments": 3282, "\u2581growing": 3283, "\u672a\u6765": 3284, "\u2581prepare": 3285, "\u5173\u952e": 3286, "\u673a\u5173": 3287, "\u2581broad": 3288, "il": 3289, "\u2581improvement": 3290, "\u5546\u5b9a": 3291, "\u2581English": 3292, "\u2581stay": 3293, "\u8d77\u8bc9": 3294, "\u6307\u5357": 3295, "\u9177\u5211": 3296, "\u5c45\u6c11": 3297, "\u2581racial": 3298, "\u2581occupied": 3299, "\u2581trial": 3300, "\u91cd\u70b9": 3301, "\u9ad8\u7ea7": 3302, "\u2581export": 3303, "\u2581System": 3304, "\u2581ago": 3305, "\u2581closely": 3306, "\u2581known": 3307, "1994": 3308, "\u2581Peacekeeping": 3309, "\u2581Assistance": 3310, "\u2581After": 3311, "\u2581U": 3312, "\u4e3e\u529e": 3313, "\u7ec4\u6210": 3314, "\u521b\u9020": 3315, "\u81ea\u613f": 3316, "\u9886\u5bfc\u4eba": 3317, "\u2581mine": 3318, "\u2581absence": 3319, "\u2581conventions": 3320, "\u6253\u7b97": 3321, "\u2581elected": 3322, "\u5baa\u7ae0": 3323, "\u4fee\u6b63": 3324, "\u573a": 3325, "\u2581alone": 3326, "\u2581happened": 3327, "\u9020\u6210\u7684": 3328, "\u4ee4": 3329, "\u2581attacks": 3330, "\u5c0d": 3331, "\u7b54\u590d": 3332, "co": 3333, "\u2581big": 3334, "la": 3335, "\u2581contact": 3336, "\u2581combating": 3337, "\u2581Islands": 3338, "\u57fa\u7840": 3339, "\u2581expertise": 3340, "\u76f8\u4e92": 3341, "\u804c\u4e1a": 3342, "\u258177": 3343, "\u2581beginning": 3344, "\u2581makes": 3345, "\u2581Officer": 3346, "\u4e2a\u56fd\u5bb6": 3347, "\u7279\u5b9a": 3348, "\u2581launched": 3349, "\u5883\u5185": 3350, "\u5927\u7ea6": 3351, "\u2581fine": 3352, "\u2581minimum": 3353, "2015": 3354, "\u5c06\u7ee7\u7eed": 3355, "\u2581useful": 3356, "weapon": 3357, "\u2581fucking": 3358, "\u2581NGOs": 3359, "\u258136.": 3360, "\u2581concrete": 3361, "\u2581Policy": 3362, "\u2581skills": 3363, "\u2581\u5bf9\u4e8e": 3364, "\u2581al": 3365, "\u6b66\u88c5\u51b2\u7a81": 3366, "\u2581operating": 3367, "\u2581US": 3368, "\u7b2c\u4e00\u6b21": 3369, "third": 3370, "@": 3371, "\u533b\u7597": 3372, "\u9700": 3373, "ment": 3374, "\u4eba\u6743\u59d4\u5458\u4f1a": 3375, "\u2581went": 3376, "\u2581Cultural": 3377, "\u751f\u7269": 3378, "\u2581cooperate": 3379, "\u2581cause": 3380, "\u2581\u6211\u77e5\u9053": 3381, "\u53ef\u80fd\u4f1a": 3382, "\u914c\u60c5": 3383, "\u63d0\u53ca": 3384, "\u8bbe\u8ba1": 3385, "\u62d8\u7559": 3386, "\u8f7d\u4e8e": 3387, "\u2581fair": 3388, "\u2581car": 3389, "\u2581Fifth": 3390, "\u2581payment": 3391, "\u75c5": 3392, "\u2581Financing": 3393, "\u503c": 3394, "\u2581respond": 3395, "\u2581almost": 3396, "\u2581actively": 3397, "\u2581agricultural": 3398, "\u2581negative": 3399, "\u2581ready": 3400, "\u585e": 3401, "\u2581Turkey": 3402, "\u8d22\u653f": 3403, "\u2581Bureau": 3404, "\u2581recruitment": 3405, "\u65e5\u671f": 3406, "\u4e3b\u9898": 3407, "\u963f\u62c9\u4f2f": 3408, "\u2581i": 3409, "\u5b9a": 3410, "\u4e00\u81f4": 3411, "\u516c\u5e73": 3412, "\u2581workshops": 3413, "\u6210\u7acb": 3414, "\u8bed\u8a00": 3415, "\u6240\u9700\u7684": 3416, "\u2581idea": 3417, "\u2581University": 3418, "\u2581son": 3419, "II": 3420, "\u2581possibility": 3421, "\u5e26\u6765": 3422, "cH": 3423, "\u4f53\u7cfb": 3424, "\u2581\u55ef": 3425, "\u8fb9\u754c": 3426, "\u8bfe\u7a0b": 3427, "\u8fd9\u6837\u7684": 3428, "\u2581Gender": 3429, "\u8bad\u7ec3": 3430, "\u653b\u51fb": 3431, "\u2581\u56fd\u9645": 3432, "\u2581Experts": 3433, "\u2581enhanced": 3434, "\u4e89\u53d6": 3435, "\u6765\u6e90": 3436, "\u4eba\u53e3\u57fa\u91d1": 3437, "\u90e8\u957f": 3438, "\u258137.": 3439, "\u2581democratic": 3440, "43": 3441, "\u2581\u662f\u554a": 3442, "\u2581lost": 3443, "\u906d\u5230": 3444, "\u2581refugee": 3445, "\u6709\u4e9b": 3446, "\u2581undertake": 3447, "\u2581Framework": 3448, "\u2581dead": 3449, "\u5f88\u591a": 3450, "\u4ee4\u4eba": 3451, "\u2581sound": 3452, "\u2581bad": 3453, "\u2581island": 3454, "\u7684\u5404\u79cd": 3455, "\u2581companies": 3456, "\u6848\u6587": 3457, "41": 3458, "\u2581definition": 3459, "\u2581professional": 3460, "\u5c06\u4e8e": 3461, "\u65e5\u5185\u74e6": 3462, "\u63d0\u6848": 3463, "\u2581avoid": 3464, "\u7684\u65b9\u6cd5": 3465, "65": 3466, "\u25813,": 3467, "\u975e\u6d32\u8054\u76df": 3468, "\u2581target": 3469, "\u80fd\u529b\u5efa\u8bbe": 3470, "\u2581migration": 3471, "\u8fd9\u4e00\u70b9": 3472, "\u2581North": 3473, "\u2581internationally": 3474, "\u2581measure": 3475, "\u5168\u90e8": 3476, "\u2581hard": 3477, "\u00f4": 3478, "ul": 3479, "\u2581\u800c": 3480, "\u4ecb\u7ecd\u4e86": 3481, "\u5728\u8fd9\u91cc": 3482, "\u2581looking": 3483, "\u2581confidence": 3484, "\u7a7a": 3485, "\u2581caused": 3486, "\u4ee5\u671f": 3487, "\u2581Indonesia": 3488, "\u2581Letter": 3489, "\u5965": 3490, "\u6700\u9ad8": 3491, "\u2581compared": 3492, "\u751a\u81f3": 3493, "\u2581\u4e0d\u8981": 3494, "\u5c06\u5176": 3495, "\u2581road": 3496, "\u2581sea": 3497, "\u2581dealing": 3498, "\u2581forest": 3499, "\u2581\u672c": 3500, "\u2581committee": 3501, "\u7ef4": 3502, "\u2581efficient": 3503, "\u5e94\u5728": 3504, "fn": 3505, "\u8377\u5170": 3506, "\u5206\u522b": 3507, "\u2581ability": 3508, "\u2581Our": 3509, "\u5de5\u4eba": 3510, "\u258135": 3511, "\u2581urges": 3512, "\u2581run": 3513, "\u578b": 3514, "\u2581\u4e0d\u662f": 3515, "\u2581relief": 3516, "\u5566": 3517, "\u2581origin": 3518, "\u2581documentation": 3519, "\u4ec0\u9ebc": 3520, "\u7684\u5987\u5973": 3521, "\u2581true": 3522, "\u2581markets": 3523, "\u7684\u5730\u65b9": 3524, "\u2581Because": 3525, "\u258138.": 3526, "\u53d1\u6325": 3527, "\u2581\u4f5c\u4e3a": 3528, "75": 3529, "\u6536": 3530, "\u5168\u7403\u5316": 3531, "\u2581immediate": 3532, "\u2581Zealand": 3533, "\u7535": 3534, "\u7684\u57fa\u7840\u4e0a": 3535, "\u8eab\u4efd": 3536, "\u2581leading": 3537, "\u91d1\u878d": 3538, "\u2581followed": 3539, "\u2581coordinated": 3540, "\u2581difficulties": 3541, "\u8fc7\u6e21": 3542, "\u5f80\u5f80": 3543, ".1)": 3544, "\u2581Ad": 3545, "\u5e73\u6c11": 3546, "\u2581planned": 3547, "\u2581\u5176\u4ed6": 3548, "\u2581week": 3549, "\u8fdb": 3550, "\u2581Territories": 3551, "\u2581Training": 3552, "\u2581extended": 3553, "\u9002\u5e94": 3554, "\u2581Ambassador": 3555, "\u632a\u5a01": 3556, "\u258139": 3557, "\u7684\u4e49\u52a1": 3558, "\u4fbf": 3559, "\u2581kill": 3560, "\u4f5c\u4e86": 3561, "\u75be\u75c5": 3562, "\u5e74\u4ee5\u6765": 3563, "\u7236\u6bcd": 3564, "\u82b1": 3565, "\u78cb\u5546": 3566, "\u4eab\u53d7": 3567, "\u7684\u652f\u6301": 3568, "\u2581Asian": 3569, "\u6765\u6587": 3570, "\u2581advance": 3571, "\u4ee3": 3572, "\u2581Egypt": 3573, "\u2581rehabilitation": 3574, "\u6350\u6b3e": 3575, "\u90a3\u4e2a": 3576, "\u5927\u4f7f": 3577, "\u2581workshop": 3578, "\u2581Liberia": 3579, "\u2581\u4f60\u77e5\u9053": 3580, "\u2581Rwanda": 3581, "\u2581Netherlands": 3582, "\u4ee5\u53ca\u5728": 3583, "\u7ed9\u6211": 3584, "\u6c14": 3585, "\u2581prison": 3586, "\u6570\u989d": 3587, "\u7684\u4f1a\u8bae": 3588, "\u2581Timor": 3589, "\u521a\u679c\u6c11\u4e3b\u5171\u548c\u56fd": 3590, "\u2581lower": 3591, "\u5370\u5ea6\u5c3c\u897f\u4e9a": 3592, "\u2581defined": 3593, "\u2581membership": 3594, "\u2581finance": 3595, "\u2581participated": 3596, "resolution": 3597, "\u542c": 3598, "\u2581model": 3599, "\u9996\u8111\u4f1a\u8bae": 3600, "\u5904\u4e8e": 3601, "ra": 3602, "\u2581offences": 3603, "\u2581damage": 3604, "\u2581parents": 3605, "\u6307\u5b9a": 3606, "\u8fd4\u56de": 3607, "58": 3608, "_": 3609, "\u2581generally": 3610, "\u2581shared": 3611, "\u6218": 3612, "\u9664": 3613, "\u2581described": 3614, "\u7b2c\u4e00": 3615, "\u2581concept": 3616, "\u2581strengthened": 3617, "\u73a9": 3618, "fs": 3619, "\u2581Italy": 3620, "\u258139.": 3621, "\u2581despite": 3622, "\u7684\u4e00\u4e9b": 3623, "\u2581recognition": 3624, "\u6027\u8d28": 3625, "\u52b3\u52a8": 3626, "\u25810": 3627, "-1": 3628, "\u5e72\u4e8b": 3629, "\u63d0\u4ea4\u7684": 3630, "#": 3631, "\u63a5": 3632, "\u2581design": 3633, "\u2581Western": 3634, "\u25811999,": 3635, "\u2581\u7136\u540e": 3636, "\u8bf8\u5982": 3637, "\u6570\u636e\u5e93": 3638, "\u2581senior": 3639, "\u2581\u597d\u7684": 3640, "\u2581Decides": 3641, "\u534a": 3642, "\u7ade\u4e89": 3643, "\u611f\u5230": 3644, "\u66fc": 3645, "\u2581inclusion": 3646, "51": 3647, "\u884c\u52a8\u7eb2\u9886": 3648, "\u2581Vice": 3649, "00": 3650, "\u7ecf\u9a8c": 3651, "proliferation": 3652, "\u89c2\u5bdf\u5458": 3653, "\u2581trying": 3654, "\u2581donor": 3655, "\u968f\u540e": 3656, "ur": 3657, "\u2581urged": 3658, "\u2581\u8c22\u8c22": 3659, "\u258140.": 3660, "\u5217": 3661, "\u5de5\u4f5c\u65b9\u6848": 3662, "\u2581net": 3663, "\u2581saw": 3664, "\u8482": 3665, "\u2581accounts": 3666, "\u9886\u57df\u7684": 3667, "\u2581Sub": 3668, "\u2581emphasized": 3669, "\u5236\u88c1": 3670, "\u2581options": 3671, "\u7f8e\u5229\u575a\u5408\u4f17\u56fd": 3672, "\u2581causes": 3673, "\u2581Spain": 3674, "\u5e72": 3675, "\u2581200": 3676, "\u2581500": 3677, "\u2581\u800c\u4e14": 3678, "\u2581component": 3679, "\u89c4\u8303": 3680, "\u5355": 3681, "\u2581From": 3682, "\u6797": 3683, "\u2581students": 3684, "\u4f9d\u636e": 3685, "\u6b65\u9aa4": 3686, "\u2581determine": 3687, "\u2581reviewed": 3688, "\u5b9a\u4e49": 3689, "\u5e73": 3690, "\u745e\u5178": 3691, "\u5408": 3692, "\u2581declaration": 3693, "\u4f53\u5236": 3694, "\u2581engaged": 3695, "\u2581punishment": 3696, "\u2581risks": 3697, "\u6d1b": 3698, "\u2581collection": 3699, "\u540d\u5355": 3700, "\u2581owing": 3701, "\u6d77\u5730": 3702, "\u2581Research": 3703, "\u7684\u91cd\u8981": 3704, "\u2581\u5b89\u5168\u7406\u4e8b\u4f1a": 3705, "\u5f53\u524d": 3706, "li": 3707, "ch": 3708, "\u2581constitute": 3709, "\u2581Cyprus": 3710, "\u2581express": 3711, "\u5229\u6bd4\u91cc\u4e9a": 3712, "\u2581Internet": 3713, "\u2581Technology": 3714, "\u2581cash": 3715, "\u2581seven": 3716, "-5": 3717, "\u9996\u5148": 3718, "\u2581forced": 3719, "\u7684\u4e00\u9879": 3720, "\u53ca\u5176\u4ed6": 3721, "\u2581outcomes": 3722, "\u300b\u3001\u300a": 3723, "\u2581written": 3724, "\u4e13\u5bb6\u7ec4": 3725, "\u2581reduced": 3726, "\u5de5\u53d1\u7ec4\u7ec7": 3727, "\u6d3b\u52a8\u7684": 3728, "\u2581shit": 3729, "\u571f\u8457": 3730, "\u5e73\u8861": 3731, "\u5947": 3732, "\u2581inform": 3733, "\u2581aircraft": 3734, "56": 3735, "\u2581W": 3736, "\u258141.": 3737, "\u6982\u5ff5": 3738, "\u2581fourth": 3739, "\u8d77\u8349": 3740, "\u2581Switzerland": 3741, "\u2581crucial": 3742, "\u2581Norway": 3743, "\u62df\u5b9a": 3744, "\u2581targets": 3745, "\u2581types": 3746, "\u2581grounds": 3747, "\u6c11\u95f4\u793e\u4f1a": 3748, "\u2581perspective": 3749, "em": 3750, "\u2581threats": 3751, "\u2581territories": 3752, "78": 3753, "\u25811994": 3754, "\u2581corruption": 3755, "\u4efb": 3756, "\u2581Chamber": 3757, "\u4f53": 3758, "\u534f\u4f5c": 3759, "\u258132": 3760, "\u4ef6": 3761, "\u53ec\u5f00": 3762, "\u540c\u6837": 3763, "\u2581imposed": 3764, "\u53d6": 3765, "\u8d44\u52a9": 3766, "\u2581reducing": 3767, "\u2581\u53e6\u5916": 3768, "\u2581\u8fd8\u6709": 3769, "\u258145": 3770, "\u2581applications": 3771, "\u2581assess": 3772, "\u2581industry": 3773, "64": 3774, "\u2581democracy": 3775, "\u65e5\u76ca": 3776, "\u2581function": 3777, "\u542f\u52a8": 3778, "\u2581election": 3779, "\u6211\u56fd": 3780, "\u539f\u5b50\u80fd\u673a\u6784": 3781, "\u2581Bosnia": 3782, "\u7684\u65f6\u95f4": 3783, "\u2581medium": 3784, "\u2581else": 3785, "\u2581placed": 3786, "\u2581Introduction": 3787, "52": 3788, "de": 3789, "\u8bb2": 3790, "\u9001": 3791, "&": 3792, "\u771f\u7684": 3793, "\u2581likely": 3794, "\u7ed3\u8bba": 3795, "\u610f": 3796, "\u2581offer": 3797, "\u2581Northern": 3798, "\u73b0\u6709\u7684": 3799, "\u5357\u975e": 3800, "2014": 3801, "\u2581talking": 3802, "\u585e\u62c9\u5229\u6602": 3803, "ri": 3804, "\u5176\u5b83": 3805, "\u2581representation": 3806, "\u5362\u65fa\u8fbe": 3807, "\u79d1\u7d22\u6c83": 3808, "\u2581actually": 3809, "\u2581site": 3810, "\u6838\u67e5": 3811, "\u2581estimates": 3812, "\u7eed": 3813, "\u2581subsequent": 3814, "\u2581\u5de5\u4f5c\u7ec4": 3815, "\u53cd\u6620": 3816, "\u2581remaining": 3817, "\u533b\u751f": 3818, "\u2581participating": 3819, "\u258142.": 3820, "\u4e3a\u6b64": 3821, "\u2581Many": 3822, "\u2581entire": 3823, "ization": 3824, "\u2581solutions": 3825, "\u8fde": 3826, "\u2581rest": 3827, "\u5e03\u9686\u8fea": 3828, "\u4e8b\u5b9e": 3829, "\u2581gave": 3830, "\u5c71": 3831, "\u2581namely": 3832, "\u2581Hello": 3833, "1993": 3834, "\u4e1c\u5e1d\u6c76": 3835, "\u9884\u8ba1": 3836, "\u258133": 3837, "\u8a00": 3838, "\u51fa\u5e2d": 3839, "\u2581shown": 3840, "\u2581headquarters": 3841, "\u56fd\u9645\u5408\u4f5c": 3842, "\u79cd\u65cf\u6b67\u89c6": 3843, "\u2581determined": 3844, "\u54a8\u8be2": 3845, "\u963f\u6839\u5ef7": 3846, "\u6566\u4fc3": 3847, "\u6389": 3848, "\u2581\u4ed6\u5011": 3849, "\u2581eliminate": 3850, "\u2581\u6211\u4f1a": 3851, "\u2581discuss": 3852, "art": 3853, "\u7684\u6267\u884c": 3854, "\u2581ratification": 3855, "\u56fd\u7c4d": 3856, "\u4e1a": 3857, "\u2581Staff": 3858, "\u2581specifically": 3859, "\u258136": 3860, "\u6210\u672c": 3861, "\u79c1\u4eba": 3862, "\u2581\u4f60\u662f": 3863, "\u2581Darfur": 3864, "\u54e5\u4f26\u6bd4\u4e9a": 3865, "\u5b89\u4fdd": 3866, "\u8ba4\u8bc6": 3867, "South": 3868, "\u2581oil": 3869, "\u2581Take": 3870, "\u5207\u5b9e": 3871, "87": 3872, "\u8d8b\u52bf": 3873, "\u6240\u4f5c\u7684": 3874, "\u25812014": 3875, "\u6307\u63a7": 3876, "\u79bb": 3877, "\u2581highest": 3878, "\u8bfa": 3879, "\u2581raise": 3880, "\u6d41": 3881, "\u2581registration": 3882, "second": 3883, "\u5211\u6cd5": 3884, "\u2581Chairperson": 3885, "\u901a\u8fc7\u7684": 3886, "\u2581\u2014": 3887, "\u548c\u53d1\u5c55": 3888, "\u2581complex": 3889, "\u62a5": 3890, "\u589e\u52a0\u4e86": 3891, "\u5f00\u653e": 3892, "\u5916\u90e8": 3893, "\u2581collective": 3894, "\u258143.": 3895, "\u53d1\u751f\u7684": 3896, "\u2581wide": 3897, "\u258137": 3898, "\u2581represented": 3899, "\u771f\u4e3b": 3900, "\u2581month": 3901, "\u5de5\u4f5c\u961f": 3902, "\u2581religion": 3903, "\u2581wait": 3904, "\u2581resulted": 3905, "of": 3906, "\u7406": 3907, "z": 3908, "\u2581though": 3909, "\u2581try": 3910, "\u73ed": 3911, "\u2581paras": 3912, "\u2581emerging": 3913, "\u723e": 3914, "88": 3915, "\u4e4b\u4e2d": 3916, "\u2581separate": 3917, "\u5236\u6b62": 3918, "\u2581Two": 3919, "ng": 3920, "\u2581scale": 3921, "\u2581holding": 3922, "\u2581Be": 3923, "\u7684\u5177\u4f53": 3924, "\u4e00\u5e74": 3925, "\u4f9b\u8d44": 3926, "\u521a\u679c": 3927, "\u2581company": 3928, "\u7279\u6b8a": 3929, "\u2581Ministers": 3930, "\u2581Herzegovina": 3931, "\u2581hell": 3932, "\u2581actual": 3933, "\u2581ad": 3934, "\u2581series": 3935, "ce": 3936, "\u2581morning": 3937, "\u2581Argentina": 3938, "\u7d22": 3939, "\u2581emphasis": 3940, "\u2581integrity": 3941, "\u2581\u628a": 3942, "\u2581competition": 3943, "\u4e0b\u964d": 3944, "\u2581accepted": 3945, "\u2581type": 3946, "\u79d8\u4e66\u957f\u5173\u4e8e": 3947, "\u258148": 3948, "\u2581forty": 3949, "\u2581(1)": 3950, "\u2581\u653f\u5e9c": 3951, "\u5206\u4eab": 3952, "\u258144.": 3953, "\u2581\u5f53\u7136": 3954, "fourth": 3955, "\u6240\u6709\u56fd\u5bb6": 3956, "\u66f4\u65b0": 3957, "\u4eba\u7684": 3958, "\u4e00\u7cfb\u5217": 3959, "\u2581\u6309\u7167": 3960, "\u2581friend": 3961, "\u2581getting": 3962, "\u5728\u4e00\u8d77": 3963, "\u25812010,": 3964, "\u2581\u5927": 3965, "\u2581nor": 3966, "\u2581mutual": 3967, "\u8fd9\u4e48": 3968, "seventh": 3969, "98": 3970, "\u2581someone": 3971, "\u258134": 3972, "59": 3973, "\u53d1\u8868": 3974, "\u5f0f": 3975, "\u51e0": 3976, "\u2581organizational": 3977, "\u53ef\u6301\u7eed": 3978, "\u7684\u56fd\u9645": 3979, "\u670b\u53cb": 3980, "\u2581Internal": 3981, "\u7684\u8d39\u7528": 3982, "\u2581highlighted": 3983, "\u8c01": 3984, "\u2581immediately": 3985, "\u4f18\u5148\u4e8b\u9879": 3986, "\u4e0d\u540c\u7684": 3987, "\u2581f": 3988, "\u2581marriage": 3989, "\u8fd9\u4e9b\u56fd\u5bb6": 3990, "\u2581wife": 3991, "\u2581organs": 3992, "\u2581l": 3993, "\u60c5": 3994, "\u2581norms": 3995, "\u2581centre": 3996, "\u2581insurance": 3997, "\u2581floor": 3998, "iv": 3999, "\u2581Humanitarian": 4000, "\u5c9b": 4001, "\u79cd\u65cf": 4002, "66": 4003, "\u6709\u5229\u4e8e": 4004, "\u516c\u4f17": 4005, "\u526f": 4006, "\u591a\u8fb9": 4007, "\u4e24\u6027\u5e73\u7b49": 4008, "se": 4009, "\u2581authorized": 4010, "\u7403": 4011, "\u2581enjoyment": 4012, "\u2581Burundi": 4013, "\u82f1": 4014, "www": 4015, "\u2581\u6211\u4e0d\u77e5\u9053": 4016, "\u2581Status": 4017, "\u2581contracts": 4018, ".\u201d": 4019, "\u5ef6\u957f": 4020, "\u2581Indigenous": 4021, "\u98de\u673a": 4022, "\u5c55\u5f00": 4023, "for": 4024, "\u2581Adoption": 4025, "\u2581category": 4026, "\u7537\u5b50": 4027, "\u80af\u5b9a": 4028, "\u2581favour": 4029, "\u7684\u65b9\u6848": 4030, "\u54a8\u8be2\u59d4\u5458\u4f1a": 4031, "\u2581consent": 4032, "\u2581advisory": 4033, "\u2581affairs": 4034, "99": 4035, "\u2581appointed": 4036, "\u56fd\u6c11": 4037, "\u8d27\u7269": 4038, "\u2581contributed": 4039, "\u2581OHCHR": 4040, "x": 4041, "\u2581Gaza": 4042, "\u258145.": 4043, "\u7684\u51b3\u8bae\u8349\u6848": 4044, "\u2581migrants": 4045, "\u83b1": 4046, "\u79d1\u7279\u8fea\u74e6": 4047, "\u901a\u62a5": 4048, "\u9884\u671f": 4049, "\u4f20\u7edf": 4050, "\u4e00\u500b": 4051, "\u2581reintegration": 4052, "UN": 4053, ".1,": 4054, "\u2581increasingly": 4055, "\u5546": 4056, "\u4e00\u7ea7": 4057, "\u2581allowed": 4058, "68": 4059, "\u2581responses": 4060, "\u7684\u529e\u6cd5": 4061, "ion": 4062, "\u5c06\u4f1a": 4063, "\u8fd0\u4f5c": 4064, "sixth": 4065, "\u65b0\u897f\u5170": 4066, "\u767d": 4067, "\u96be\u6c11\u7f72": 4068, "fifth": 4069, "\u53c2\u52a0\u4e86": 4070, "\u751f\u547d": 4071, "\u6c92\u6709": 4072, "\u53f7\u6587\u4ef6": 4073, "\u58eb": 4074, "\u6211\u8981": 4075, "\u2581Colombia": 4076, "\u8d5e\u540c": 4077, "\u2581started": 4078, "\u2581\u4f46\u6211": 4079, "\u536b\u661f": 4080, "\u6350\u52a9\u8005": 4081, "\u2581recognize": 4082, "\u2581mainly": 4083, "\u8239": 4084, "\u56e2": 4085, "\u90a3\u6837": 4086, "\u2581findings": 4087, "v": 4088, "67": 4089, "ie": 4090, "\u2581approximately": 4091, "\u2581extend": 4092, "\u5c31\u4f1a": 4093, "\u660e\u663e": 4094, "\u258146.": 4095, "\u2581guarantee": 4096, "\u9a7b": 4097, "do": 4098, "\u2581engage": 4099, "54": 4100, "\u2581chapter": 4101, "\u2581whom": 4102, "\u7684\u5b89\u5168": 4103, "\u589e\u8fdb": 4104, "\u2581\u9664\u4e86": 4105, "\u5e94\u7528": 4106, "\u8d37\u6b3e": 4107, "\u2581records": 4108, "\u2581science": 4109, "\u2581Rule": 4110, "\u2581fulfil": 4111, "\u5199": 4112, "Y": 4113, "eighth": 4114, "\u516b": 4115, "\u4f24\u5bb3": 4116, "\u8f7d\u6709": 4117, "\u25811993": 4118, "\u2581secure": 4119, "\u5b9e\u8d28\u6027": 4120, "\u4eba\u529b\u8d44\u6e90": 4121, "\u7968": 4122, "\u53d1\u8fbe\u56fd\u5bb6": 4123, "53": 4124, "\u6240\u9700": 4125, "\u2581remember": 4126, "\u8fa9\u8bba": 4127, "\u2581Food": 4128, "ry": 4129, "\u88ad\u51fb": 4130, "\u2581Sea": 4131, "\u2581candidates": 4132, "\u8bc9": 4133, "\u6cbb\u7406": 4134, "\u53d6\u6d88": 4135, "\u2581everyone": 4136, "\u7ae0": 4137, "\u4e3e\u884c\u4e86": 4138, "\u5224\u51b3": 4139, "\u8f83": 4140, "nd": 4141, "ninth": 4142, "\u7684\u7ecf\u6d4e": 4143, "\u5305": 4144, "\u8c03": 4145, "\u2581convention": 4146, "\u4eba\u6743\u7406\u4e8b\u4f1a": 4147, "\u7ecf\u8fc7": 4148, "\u4fbf\u5229": 4149, "79": 4150, "\u2581base": 4151, "62": 4152, "\u2581networks": 4153, "\u2581Maybe": 4154, "\u5f97\u5230\u4e86": 4155, "\u2581Governing": 4156, "\u2581contains": 4157, "\u2581Trust": 4158, "\u2581\u6709\u4eba": 4159, "\u7684\u8ba4\u8bc6": 4160, "\u2581observers": 4161, "\u2581respectively": 4162, "\u5bb6\u5ead\u66b4\u529b": 4163, "\u7269\u8d28": 4164, "\u5e74\u9f84": 4165, "\u6240\u8ff0": 4166, "\u2581victim": 4167, "\u51fa\u53bb": 4168, "\u7247": 4169, "\u2581Ukraine": 4170, "\u5c3c\u65e5\u5229\u4e9a": 4171, "\u7684\u5de5\u4f5c\u4eba\u5458": 4172, "\u96be": 4173, "$": 4174, "\u5bf9\u6b64": 4175, "\u2581elimination": 4176, "\u51e0\u4e2a": 4177, "\u2581Sweden": 4178, "89": 4179, "\u2581Deputy": 4180, "\u2581unless": 4181, "\u2581\u5e94": 4182, "\u2581alleged": 4183, "\u2581round": 4184, "\u2581\u4e3a\u6b64": 4185, "\u8d1d": 4186, "\u2581learned": 4187, "\u600e\u4e48": 4188, "\u901a\u4fe1": 4189, "\u8054\u5408\u738b\u56fd": 4190, "\u2581Have": 4191, "\u6761\u89c4\u5b9a": 4192, "\u2581gross": 4193, "\u6ce2": 4194, "\u6bb5\u4e2d": 4195, "\u2581published": 4196, "\u2581\u56db": 4197, "\u5012": 4198, "\u2581Any": 4199, "\u2581word": 4200, "\u258147.": 4201, "\u2581fields": 4202, "\u2581yourself": 4203, "\u4e86\u5417": 4204, "\u4ef7\u683c": 4205, "\u00e1": 4206, "\u8fdb\u53e3": 4207, "\u4e1c\u897f": 4208, "\u5305\u62ec\u5728": 4209, "\u5206\u7c7b": 4210, "\u8d21\u732e": 4211, "\u798f\u5229": 4212, "uestions": 4213, "\u2581interested": 4214, "\u2581campaign": 4215, "\u2581drugs": 4216, "\u53e4": 4217, "\ue4c7": 4218, "\u25812005.": 4219, "\u2581Control": 4220, "\u548c\u5e73\u4e0e\u5b89\u5168": 4221, "\u2581investigations": 4222, "\u2581sharing": 4223, "\u5173": 4224, "\u66f4\u4e3a": 4225, "\u2581Prosecutor": 4226, "\u2581Haiti": 4227, "\u2581Noting": 4228, "\u2581statistical": 4229, "\u6b8b\u75be": 4230, "\u2581Parliament": 4231, "\u4e0d\u53ef": 4232, "\u2581endorsed": 4233, "\u2581preventing": 4234, "\u2581Wait": 4235, "\u62df\u8bae": 4236, "\u53d7\u5bb3\u4eba": 4237, "\u2581forum": 4238, "\ue5ec": 4239, "\u8ba9\u6211": 4240, "\u6ce2\u65af\u5c3c\u4e9a\u548c\u9ed1\u585e\u54e5\u7ef4\u90a3": 4241, "\u5f97\u4ee5": 4242, "\u2581Drugs": 4243, "\u4f7f\u5176": 4244, "\u2581territorial": 4245, "\u6b27\u76df": 4246, "\u57fa\u91d1\u4f1a": 4247, "\u4fdd\u9669": 4248, "\u5f85": 4249, "\u2581Lord": 4250, "\u2581\u53c8": 4251, "\u2581publication": 4252, "\u533b\u9662": 4253, "\u2581thematic": 4254, "\u2581requirement": 4255, "\u53f0": 4256, "\u2581categories": 4257, "\u8fd9\u91cc": 4258, "\u2581indicate": 4259, "\u5ba1\u7406": 4260, "\u2581reconciliation": 4261, "\u540e\u679c": 4262, "1991": 4263, "\u258155": 4264, "\u4e0e\u4f1a\u8005": 4265, "\u2581appointment": 4266, "\u7684\u6570\u636e": 4267, "\u2581marine": 4268, "\u5468": 4269, "\u70ba": 4270, "\u5206\u53d1": 4271, "\u2581minorities": 4272, "\u62a5\u544a\u4e2d": 4273, "\u2581press": 4274, "\u2581Ethiopia": 4275, "\u2581Population": 4276, "\u4e0d\u77e5\u9053": 4277, "\u7279\u522b\u59d4\u5458\u4f1a": 4278, "\u2581Nigeria": 4279, "\u6267\u884c\u60c5\u51b5": 4280, "\u2581\u5efa\u8bae": 4281, "\u2581offence": 4282, "\u6cd5\u6cbb": 4283, "\u2581fuck": 4284, "\u6469\u6d1b\u54e5": 4285, "\u2581globalization": 4286, "\u56de\u6765": 4287, "\u258148.": 4288, "\u56e0\u800c": 4289, "ine": 4290, "\u2581waste": 4291, "\u258138": 4292, "\u6d3b": 4293, "\u4f26": 4294, "\u2581Decade": 4295, "\u2581completion": 4296, "\u2581listed": 4297, "\u2581reforms": 4298, "85": 4299, "\u2581competent": 4300, "\u2581expenditures": 4301, "\u519c\u6751": 4302, "\u2581realization": 4303, "\u2581values": 4304, "\u2581saying": 4305, "\u2581reservations": 4306, "\u258147": 4307, "\u9009": 4308, "\u5e76\u4e3a": 4309, "\u25814,": 4310, "\u8d27\u5e01": 4311, "\u258142": 4312, "\u2581defence": 4313, "\u5370\u53d1": 4314, "\u2581failure": 4315, "\u5170": 4316, "\u2581expression": 4317, "\u258149.": 4318, "\u2581unit": 4319, "\u2581\u4f60\u7684": 4320, "\u81ea\u7136": 4321, "\u2581populations": 4322, "\u50a8\u5b58": 4323, "\u2581internally": 4324, "\u2581functioning": 4325, "\u2581Morocco": 4326, "\u591a\u6570": 4327, "\u2581credit": 4328, "\u68ee": 4329, "\u2581\u79d8\u4e66\u5904": 4330, "\u258143": 4331, "\u6295\u7968": 4332, "\u5230\u4e86": 4333, "\u2581affect": 4334, "\u2581]": 4335, "\u2581\u597d\u4e86": 4336, "\u2581AND": 4337, "\u2581eight": 4338, "\u2581recorded": 4339, "\u6c92": 4340, "\u2581structures": 4341, "\u7684\u8d44\u6e90": 4342, "\u2581trends": 4343, "\u89e3": 4344, "\u76ee\u7684\u662f": 4345, "\u2581creating": 4346, "\u6bd4\u4f8b": 4347, "\u2581isn": 4348, "\u98ce": 4349, "\u975e\u6d32\u56fd\u5bb6": 4350, "\u8fbe\u6210": 4351, "\u662f\u4e3a\u4e86": 4352, "spoke": 4353, "\u6c99": 4354, "\u2581considers": 4355, "\u2581subsidiary": 4356, "\u7684\u5185\u5bb9": 4357, "\u2581sovereignty": 4358, "\u73af\u5883\u7f72": 4359, "\u2581lessons": 4360, "\u740c": 4361, "95": 4362, "\u4fc3\u4f7f": 4363, "\u57c3\u585e\u4fc4\u6bd4\u4e9a": 4364, "\u25812011,": 4365, "\u5e76\u786e\u4fdd": 4366, "\u91c7\u53d6\u4e86": 4367, "ness": 4368, "\u2581places": 4369, "\u4e8b\u60c5": 4370, "\u2581earlier": 4371, "\u2581agree": 4372, "\u2581city": 4373, "\u6709\u4e00\u4e2a": 4374, "\u25811998,": 4375, "\u4e2d\u592e": 4376, "COP": 4377, "\u795e": 4378, "\u258150.": 4379, "\u2581Chile": 4380, "74": 4381, "\u6bd2\u54c1": 4382, "\u8fdc": 4383, "\u2581\u7f14\u7ea6\u56fd": 4384, "\u2581\u5f53": 4385, "\u2581speak": 4386, "\u2581granted": 4387, "\u51b3\u7b56": 4388, "\u6bd4\u5229\u65f6": 4389, "\u68c0\u5bdf\u5b98": 4390, "\u2581rise": 4391, "\u2581Yugoslavia": 4392, "\u2581tasks": 4393, "\u2581\u4eca\u5929": 4394, "\u2581tool": 4395, "\u2581Co": 4396, "\u2581(2)": 4397, "\u2581Field": 4398, "\u7684\u6587\u4ef6": 4399, "\u529b\u91cf": 4400, "\u53d9\u5229\u4e9a": 4401, "\u2581\u540c\u6837": 4402, "\u2581Ma": 4403, "\u2581industrial": 4404, "\u2581substantial": 4405, "\u56e2\u7ed3": 4406, "\u2581Calls": 4407, "\u5047": 4408, "\u5927\u591a\u6570": 4409, "\u547d\u4ee4": 4410, "\u60f3\u8981": 4411, "\u4ed8\u6b3e": 4412, "\u5e0c": 4413, "\u2581allegations": 4414, "\u2581\u6240\u6709": 4415, "\u2581\u2022": 4416, "\u2581Fifty": 4417, "CONF": 4418, "\u2581formulation": 4419, "HRC": 4420, "\u2581outstanding": 4421, "\u53ea\u80fd": 4422, "\u2581Her": 4423, "\u2581delay": 4424, "\u2581sought": 4425, "\u6307": 4426, "----": 4427, "\u5916\u4ea4": 4428, "\u2581availability": 4429, "\u53d1\u51fa": 4430, "\u96c7\u5458": 4431, "\u53d8": 4432, "\u5ba1\u8bae\u4e86": 4433, "na": 4434, "im": 4435, "\u83ab": 4436, "\u6838\u5fc3": 4437, "\u91cd\u89c6": 4438, "\u2581racism": 4439, "\u2581Forms": 4440, "\u2581Another": 4441, "\u2581dissemination": 4442, "\u2581arising": 4443, "\u2581\u4f60\u8981": 4444, "vi": 4445, "\u2581delivered": 4446, "\u5c3d\u53ef\u80fd": 4447, "\u8d4b\u4e88": 4448, "by": 4449, "\u2581subprogramme": 4450, "\u2581Subcommittee": 4451, "\u6b7b\u4e86": 4452, "\u7136\u540e": 4453, "\u2581eradication": 4454, "\u2581content": 4455, "\u2581inside": 4456, "\u5f81\u8058": 4457, "\u2581Allah": 4458, "\u2581aware": 4459, "\u7ef4\u6301\u548c\u5e73\u884c\u52a8": 4460, "\u4e0d\u518d": 4461, "\u2581executive": 4462, "\u2581Developing": 4463, "73": 4464, "\u7cae\u98df": 4465, "\u6267\u884c\u5c40": 4466, "\u6cb3": 4467, "\u2581boys": 4468, "\u2581constitutional": 4469, "\u2581visits": 4470, "\u2581survey": 4471, "\u4f0a\u6717": 4472, "\u2581nationality": 4473, "\u2581speaking": 4474, "\u2581Add": 4475, "\u5207": 4476, "\u2581interpretation": 4477, "\u2581vital": 4478, "ah": 4479, "\u8be6\u7ec6": 4480, "\u96be\u4ee5": 4481, "\u2581Following": 4482, "\u2581\u56e0\u4e3a": 4483, "\u2581\u5230": 4484, "\u5c11": 4485, "\u7684\u6218\u7565": 4486, "\u2581Or": 4487, "\u2581Monitoring": 4488, "\u2581Refugees": 4489, "\u2581equitable": 4490, "\u60c5\u62a5": 4491, "\u2581nice": 4492, "\u7f51\u7ad9": 4493, "\u5730\u96f7": 4494, "\u4f1a\u8bae\u4e0a": 4495, "\u4e4b\u4e0b": 4496, "\u2581\u4e0b\u5348": 4497, "\u2581sense": 4498, "\u76ae": 4499, "\u2581giving": 4500, "\u2581existence": 4501, "\u2581amended": 4502, "\u2581worked": 4503, "\u585e\u6d66\u8def\u65af": 4504, "\u667a\u5229": 4505, "\u6d25\u8d34": 4506, "\u5408\u6cd5": 4507, "\u6846\u67b6\u5185": 4508, "ent": 4509, "\u4e00\u5b9a": 4510, "\u7c7b\u4f3c": 4511, "\u2581mainstreaming": 4512, "\u2581Their": 4513, "\u673a\u6784\u95f4": 4514, "\u2581accounting": 4515, "61": 4516, "ist": 4517, "0.": 4518, "\u2581amendments": 4519, "\u548c\u5e73\u8fdb\u7a0b": 4520, "\u5efa\u7b51": 4521, "\u4e1c": 4522, "\u2581Official": 4523, "\u5e73\u5747": 4524, "\u559d": 4525, "\u7f72": 4526, "\u2581\u51b3\u8bae\u8349\u6848": 4527, "\u624b\u518c": 4528, "\u2581fire": 4529, "\u2581considering": 4530, "\u9664\u5176\u4ed6\u5916": 4531, "\u2581concluding": 4532, "\u7684\u7a0b\u5e8f": 4533, "\u2581weeks": 4534, "\u7684\u8ba8\u8bba": 4535, "\u82ac\u5170": 4536, "\u56de\u987e": 4537, "\u2581boy": 4538, "\u963b\u6b62": 4539, "\u258151.": 4540, "\u2581diplomatic": 4541, "\u2581Summary": 4542, "\u2581ratified": 4543, "\u2581reproductive": 4544, "w": 4545, "her": 4546, "76": 4547, "\u2581comply": 4548, "\u2581Prime": 4549, "\u7cfb": 4550, "\u2581identification": 4551, "\u773c": 4552, "\u2581produced": 4553, "\u2581emissions": 4554, "\u6b63\u5e38": 4555, "\u5360\u9886": 4556, "\u2581agriculture": 4557, "continued": 4558, "\u2581deep": 4559, "\u2581faced": 4560, "ta": 4561, "\u8d5e\u626c": 4562, "\u2581supports": 4563, "72": 4564, "\u2581Scientific": 4565, "\u4e4c\u5e72\u8fbe": 4566, "\u70ed": 4567, "\u2581\u5011": 4568, "\u8bbe\u7acb\u4e00\u4e2a": 4569, "determination": 4570, "\u9996": 4571, "\u2581300": 4572, "\u2581Session": 4573, "\u547d": 4574, "\u2581components": 4575, "\u2581Lebanese": 4576, "\u2581observed": 4577, "\u2581added": 4578, "\u258141": 4579, "\u2581COP": 4580, "\u2581wanna": 4581, "\u5c3d\u5feb": 4582, "\u2581experiences": 4583, "\u2581courses": 4584, "\u5de5\u7a0b": 4585, "ad": 4586, "\u2581otherwise": 4587, "\u2581Resolution": 4588, "\u258149": 4589, "\u2581Principles": 4590, "\u2581thirty": 4591, "\u2581near": 4592, "\u7ed9\u4f60": 4593, "\u2581Open": 4594, "\u7684\u6210\u5458": 4595, "\u4fe1\u606f\u548c\u901a\u4fe1\u6280\u672f": 4596, "WG": 4597, "\u2581attack": 4598, "\u25812006.": 4599, "\u5728\u8054\u5408\u56fd": 4600, "\u7684\u539f\u56e0": 4601, "\u51fa\u6765": 4602, "\u2581institution": 4603, "\u5316\u5b66\u54c1": 4604, "\u2581presentation": 4605, "wide": 4606, "\u258152.": 4607, "\u4e2a\u6708": 4608, "est": 4609, "\u8bbe\u7acb\u4e86": 4610, "\u5386\u53f2": 4611, "\u516c\u6b63": 4612, "\u7167\u987e": 4613, "\u804c\u8d23": 4614, "\u5f53\u65f6": 4615, "\u2581entered": 4616, "\u8f6c\u79fb": 4617, "\u5f62\u6210": 4618, "\u672c\u62a5\u544a": 4619, "\u54c1": 4620, "\u2581behind": 4621, "\u5987\u5973\u5728": 4622, "\u7684\u53ef\u80fd\u6027": 4623, "\u73b0": 4624, "\u7b97": 4625, "\u2581zone": 4626, "97": 4627, "\u7b79\u8d44": 4628, "\u7533\u8bc9": 4629, "\u2581oversight": 4630, "\u25811991": 4631, "\u5728\u6267\u884c": 4632, "83": 4633, "\u5fc5\u8981": 4634, "\u7684\u8bf7\u6c42": 4635, "\u8bdd": 4636, "\u500b": 4637, "\u7684\u9700\u6c42": 4638, "\u2581exist": 4639, "\u6570\u76ee": 4640, "\u2581IAEA": 4641, "\u9ed1": 4642, "\u6709\u6548\u5730": 4643, "/2": 4644, "\u2581strongly": 4645, "\u2581heart": 4646, "\u4e03": 4647, "\u4e00\u70b9": 4648, "ended": 4649, "\u2581Promotion": 4650, "\u786e\u5b9e": 4651, "\u2581assessed": 4652, "\u2581significantly": 4653, "\u89c6": 4654, "\u535a": 4655, "ma": 4656, "\u79cd": 4657, "\u2581commissions": 4658, "\u2581minutes": 4659, "\u2581hands": 4660, "\u2581\u540c\u65f6": 4661, "\u2581knew": 4662, "\u53e6\u4e00": 4663, "\u67d0\u4e00": 4664, "\u5f88\u597d": 4665, "\u2581\u52a0\u5f3a": 4666, "\u2581selected": 4667, "\u2581Thus": 4668, "\u6cd5\u6848": 4669, "\u2581targeted": 4670, "\u7537\u4eba": 4671, "\u51e0\u4e4e": 4672, "\u6d41\u52a8": 4673, "\u2581yeah": 4674, "\u8bc1\u4eba": 4675, "\u2581\u4e3a\u4ec0\u4e48": 4676, "\u2581Finland": 4677, "\u2581Kenya": 4678, "\u7ec8\u6b62": 4679, "\u2581theme": 4680, "\u2581\u622a\u81f3": 4681, "\u88c5": 4682, "\u5404\u4e2a": 4683, "\u771f\u6b63": 4684, "\u62c5\u5fc3": 4685, "\u6295\u5165": 4686, "\u754c": 4687, "\u2581VI": 4688, "economic": 4689, "\u7684\u57fa\u672c": 4690, "\u2581Initiative": 4691, "\u2581setting": 4692, "\u2581sustained": 4693, "use": 4694, "\u2581\u963f": 4695, "\u7533\u8bc9\u4eba": 4696, "\u2581More": 4697, "\u53cd\u5e94": 4698, "\u2581Britain": 4699, "\u258153.": 4700, "\u2581history": 4701, "\u5efa\u8bbe\u548c\u5e73": 4702, "\u2581Day": 4703, "\u6c61\u67d3": 4704, "\u2581Myanmar": 4705, "\u2581price": 4706, "\u516c\u5e03": 4707, "Z": 4708, "\u2581wishes": 4709, "\u2581direction": 4710, "\u7528\u9014": 4711, "\u521d\u6b65": 4712, "\u7b79\u5907": 4713, "\u4e0e\u5176\u4ed6": 4714, "\u8840": 4715, "\u79cd\u65cf\u4e3b\u4e49": 4716, "\u5965\u5730\u5229": 4717, "\u5efa\u7acb\u4e86": 4718, "\u9274\u4e8e": 4719, "\u6cb9": 4720, "\u25812004.": 4721, "\u2581inclusive": 4722, "\u83f2\u5f8b\u5bbe": 4723, "\u2581engagement": 4724, "\u4e70": 4725, "\u5236\u9020": 4726, "ne": 4727, "\u65e2": 4728, "\u2581asylum": 4729, "\u3002\u201d": 4730, "\u4e0b\u5348": 4731, "\u662f\u4ec0\u4e48": 4732, "\u519b\u961f": 4733, "\u6781": 4734, "\u2581forth": 4735, "\u7528\u6237": 4736, "\u57c3": 4737, "\u2581socio": 4738, "\u2581\u53bb": 4739, "\u2581\u59d4\u5458\u4f1a\u8fd8": 4740, "\u4e0d\u53d7": 4741, "\u5408\u5e76": 4742, "\u25811992": 4743, "\u2581Most": 4744, "\u5b89\u5168\u548c": 4745, "\u5f9e": 4746, "\u2581disasters": 4747, "time": 4748, "\u2581\u4f60\u5728": 4749, "\u8389": 4750, "\u6570\u5b57": 4751, "\u2581highly": 4752, "\u2581Stop": 4753, "\u2581complainant": 4754, "\u4e0a\u8bc9": 4755, "\u2581electoral": 4756, "\u2581\u79d8\u4e66\u957f\u5173\u4e8e": 4757, "\u4e4c\u514b\u5170": 4758, "\u6bcd\u4eb2": 4759, "\u258146": 4760, "\u2581failed": 4761, "\u65f6\u671f": 4762, "\u2581Thailand": 4763, "\u2581enabling": 4764, "\u4ef7": 4765, "\u4e0d\u6703": 4766, "\u2581frameworks": 4767, "\u2581gotta": 4768, "\u25812012,": 4769, "63": 4770, "\u91cd\u5efa": 4771, "\u25812008.": 4772, "\u2581release": 4773, "\u5019\u9009\u4eba": 4774, "\u25815,": 4775, "\u5546\u54c1": 4776, "\u51fa\u7248\u7269": 4777, "\u2581enterprises": 4778, "\u2581consumption": 4779, "\u8c34\u8d23": 4780, "\u4eba\u58eb": 4781, "\u4fe1\u606f\u6280\u672f": 4782, "\u5a5a\u59fb": 4783, "\u2581speakers": 4784, "\u2581\u4f60\u5011": 4785, "96": 4786, "\u2581complaints": 4787, "\u2581\u770b": 4788, "\u2581Austria": 4789, "\u2581\u5982\u679c\u4f60": 4790, "\u2581spirit": 4791, "\u2581secondary": 4792, "\u975e\u6b63\u5f0f": 4793, "\u2581Partnership": 4794, "\u8dd1": 4795, "\u6cd5\u89c4": 4796, "free": 4797, "\u5979\u7684": 4798, "\u63d0\u4f9b\u63f4\u52a9": 4799, "\u611f": 4800, "\u2581restrictions": 4801, "\u8150\u8d25": 4802, "\u2581\u56de\u987e": 4803, "\u2581\u5f3a\u8c03": 4804, "\u4e5f\u6ca1\u6709": 4805, "\u2581played": 4806, "\u4f5c\u51fa\u4e86": 4807, "\u2581troop": 4808, "\u2581die": 4809, "\u4e5d": 4810, "\u8c03\u52a8": 4811, "\u9662": 4812, "Secretary": 4813, "\u2581Out": 4814, "\u2581conformity": 4815, "\u9010\u6b65": 4816, "\u2581updated": 4817, "\u2581obtain": 4818, "\u5e76\u5411": 4819, "\u65e5\u671f\u95f4": 4820, "\u2581\u9f13\u52b1": 4821, "\u6709\u9650": 4822, "\u7684\u5173\u7cfb": 4823, "\u7c7b\u522b": 4824, "\u2581offered": 4825, "\u258144": 4826, "\u2581website": 4827, "\u2581wasn": 4828, "\u63a2\u8ba8": 4829, "\u2581gone": 4830, "\u5305\u542b": 4831, "\u25812007.": 4832, "\u2581\u5c31\u662f": 4833, "\u6f84\u6e05": 4834, "\u7684\u57fa\u7840": 4835, "\u2581Its": 4836, "\u7684\u8d44\u91d1": 4837, "\u2581Saudi": 4838, "\u2581sentence": 4839, "\u258154.": 4840, "\u2581diversity": 4841, "\u2581amounts": 4842, "\u2581Spanish": 4843, "\u2581facilitating": 4844, "\u2581encouraging": 4845, "\u5e76\u5bf9": 4846, "\u8bd5\u56fe": 4847, "\u4e3a\u4ec0\u4e48": 4848, "\u2581reservation": 4849, "\u7167": 4850, "\u95ee\u9898\u4e0a": 4851, "\u505a\u4e86": 4852, "\u590d\u6742": 4853, "\u2581amendment": 4854, "\u2581pointed": 4855, "\u2581tax": 4856, "\u2581Georgia": 4857, "\u5bc6\u5207\u5408\u4f5c": 4858, "\u2581Several": 4859, "\u2581coverage": 4860, "\u5e76\u6ca1\u6709": 4861, "\u2581Supreme": 4862, "\u2581topic": 4863, "\u5168\u4e16\u754c": 4864, "81": 4865, "\u2581transit": 4866, "ting": 4867, "86": 4868, "\u2581decide": 4869, "\u4e16": 4870, "\u8fb9": 4871, "\u91cd\u8981\u7684": 4872, "\u4e00\u9053": 4873, "\u2581Uganda": 4874, "\u76f8\u6bd4": 4875, "\u4ee5\u5916": 4876, "\u653f\u5e9c\u95f4": 4877, "\u5408\u7406": 4878, "\u56fd\u5bb6\u7684": 4879, "\u2581except": 4880, "\u4e0d\u53ef\u80fd": 4881, "\u25812003.": 4882, "\u8ba1": 4883, "\u2581considerable": 4884, "\u2581Finally": 4885, "\u2581\u90a3\u662f": 4886, "\u2581Universal": 4887, "\u67aa": 4888, "\u2581payments": 4889, "\u7684\u6210\u679c": 4890, "\u2581budgetary": 4891, "\u2581identity": 4892, "\u258156": 4893, "\u6240\u5217": 4894, "\u258158": 4895, "\u2581charge": 4896, "\u8d5e\u8d4f": 4897, "\u7684\u7406\u7531": 4898, "\u4e3b\u5e2d\u56e2": 4899, "\u5408\u4f5c\u4f19\u4f34": 4900, "\u2581arrest": 4901, "\u5f04": 4902, "\u2581containing": 4903, "son": 4904, "\u5e7f\u6cdb\u7684": 4905, "\u5c4a": 4906, "\u51b3\u5fc3": 4907, "\u2581ex": 4908, "\u2581teams": 4909, "\u2581\u51b3\u5b9a": 4910, "\u5e74\u81f3": 4911, "\u2581\u9019\u662f": 4912, "\u548c\u8054\u5408\u56fd": 4913, "82": 4914, "\u5f3a": 4915, "\u2581Resources": 4916, "\u2581outer": 4917, "\u5b50\u5973": 4918, "\u2581m": 4919, "\u2581St": 4920, "\u2581Azerbaijan": 4921, "\u2581losses": 4922, "\u8fd9\u6b21": 4923, "\u2581\u7279\u522b\u62a5\u544a\u5458": 4924, "\u7684\u7ecf\u9a8c": 4925, "\u2581previously": 4926, "\u4ea7": 4927, "\u258154": 4928, "iii": 4929, "\u2581drafting": 4930, "\u2581Peru": 4931, "\u7684\u9700\u8981": 4932, "\u5728\u7b2c": 4933, "\u2581registered": 4934, "\u2581determination": 4935, "\u5730\u533a\u7684": 4936, "\u2581\u60a8": 4937, "\u6cf0\u56fd": 4938, "\u258155.": 4939, "\u6280\u672f\u5408\u4f5c": 4940, "\u5176\u4ed6\u56fd\u5bb6": 4941, "\u4e00\u4f4d": 4942, "\ue4ce": 4943, "\u2581\u672c\u62a5\u544a": 4944, "\u8ba8\u8bba\u4e86": 4945, "\u2581linked": 4946, "\u2581Dr": 4947, "\u8fd8\u5c06": 4948, "\u63a8\u8fdb": 4949, "\u2581Fourth": 4950, "\u2581friends": 4951, "\u2581governing": 4952, "\u58f0\u79f0": 4953, "\u7559": 4954, "\u7537\u6027": 4955, "\u559c\u6b22": 4956, "\u5916\u5730": 4957, "\u4e39\u9ea6": 4958, "\u51cf": 4959, "\u2581\u7406\u4e8b\u4f1a": 4960, "\u7684\u6807\u51c6": 4961, "\u2581Philippines": 4962, "\ue707": 4963, "\u521b\u65b0": 4964, "\u2581ownership": 4965, "\u65e9": 4966, "\u2581heads": 4967, "\u9879\u4e0b": 4968, "\u7684\u653f\u6cbb": 4969, "\u2581Project": 4970, "\u79d8\u9c81": 4971, "ive": 4972, "\u8f66\u8f86": 4973, "\u58f0": 4974, "\u2581stand": 4975, "\u6ce2\u5170": 4976, "\u2581expenses": 4977, "\u2581facing": 4978, "\u2581satisfaction": 4979, "\u2581Algeria": 4980, "\u2581Thanks": 4981, "\u2581carrying": 4982, "CRP": 4983, "\u7684\u4eba\u5458": 4984, "\u2581Chapter": 4985, "\u2581Croatia": 4986, "\u7ef4\u6301\u548c\u5e73": 4987, "\u2581Family": 4988, "\u2581Assistant": 4989, "\u2581begin": 4990, "\u25812002.": 4991, "\u4f0a\u65af\u5170": 4992, "\u662f\u8c01": 4993, "\u2581systematic": 4994, "\u2581limit": 4995, "\u2581disability": 4996, "93": 4997, "\u623f": 4998, "\u6559\u80b2\u548c": 4999, "\u2581EU": 5000, "\u902e\u6355": 5001, "\u5c0f\u65f6": 5002, "\u5973\u4eba": 5003, "))": 5004, "\u76ee\u524d\u7684": 5005, "\u9a6c\u91cc": 5006, "\u5c5e": 5007, "\u2581intention": 5008, "\u2581De": 5009, "\u82cf": 5010, "\u4f24": 5011, "\u8fd9\u65b9\u9762\u7684": 5012, "\u79fb\u5f99": 5013, "\u2581mortality": 5014, "\u6c14\u5019": 5015, "\u8fd9\u4e2a\u95ee\u9898": 5016, "\u2581Notes": 5017, "day": 5018, "\u2581transparent": 5019, "\u4e9a\u6d32": 5020, "71": 5021, "\u2581flows": 5022, "\u2581diseases": 5023, "\u5371\u5730\u9a6c\u62c9": 5024, "\u2581Hoc": 5025, "\u2581Sorry": 5026, "\u4f9d\u7136": 5027, "\u2581maintained": 5028, "\u9500\u552e": 5029, "\u2581bank": 5030, "1\\": 5031, "\u2581prices": 5032, "id": 5033, "\u2581sites": 5034, "\u5355\u72ec": 5035, "\u2581fuel": 5036, "\u76f8\u540c": 5037, "\u5404\u81ea": 5038, "\u2581Statute": 5039, "\u258156.": 5040, "\u5404\u7ea7": 5041, "1992": 5042, "\u2581database": 5043, "\u2581seeking": 5044, "\u4e3b\u6743": 5045, "\u8d26\u6237": 5046, "\u7684\u4eba\u6743": 5047, "\u7684\u5229\u76ca": 5048, "\u575a\u6301": 5049, "\u8ba8\u8bba\u4f1a": 5050, "\u2581Czech": 5051, "\u8c61": 5052, "\u2581draw": 5053, "\u4ee5\u5f80": 5054, "\u2581proper": 5055, ".4/": 5056, "\u7684\u6311\u6218": 5057, "\u2581resolve": 5058, "\u2581governments": 5059, "\u5dee": 5060, "\u2581Despite": 5061, "\u4f0a\u6717\u4f0a\u65af\u5170\u5171\u548c\u56fd": 5062, "\u2581Therefore": 5063, "\u7684\u8303\u56f4": 5064, "\u7684\u76ee\u7684": 5065, "\u2581pursue": 5066, "\u2581preparatory": 5067, "\u258153": 5068, "\u6c47\u7f16": 5069, "\u2581race": 5070, "\u2581Regulations": 5071, "\u2581brother": 5072, "\u2581ICT": 5073, "\u2581nations": 5074, "\u4e0e\u8054\u5408\u56fd": 5075, "\u53e6\u5916": 5076, "\u89e3\u51b3\u529e\u6cd5": 5077, "\u2581Small": 5078, "\u5384\u7acb\u7279\u91cc\u4e9a": 5079, "\u51cf\u8f7b": 5080, "\u2581regulatory": 5081, ".15": 5082, "\u7a7f": 5083, "\u2581Jerusalem": 5084, "\u56db\u4e2a": 5085, "05": 5086, "\u6765\u4e86": 5087, "\u4ebf": 5088, "\u2581says": 5089, "\u2581original": 5090, "\u2581preliminary": 5091, "\u2581Recognizing": 5092, "\u2581minority": 5093, "\u2581initiated": 5094, "\u2581obstacles": 5095, "\u77e5": 5096, "\u5373\u5c06": 5097, "\u526f\u4e3b\u5e2d": 5098, "\u2581Congress": 5099, "\u2581baby": 5100, "\u2581Hi": 5101, "\u2581Energy": 5102, "\u8bc4\u8bba": 5103, "\u2581Sir": 5104, "\u2581Network": 5105, "\u2581funded": 5106, "\u2581introduction": 5107, "\u653e\u5f03": 5108, "\u6df1": 5109, "\u2581maintaining": 5110, "\u2581truth": 5111, "one": 5112, "\u91ca\u653e": 5113, "DP": 5114, "\u2581works": 5115, "\u2581Budgetary": 5116, "\u2581interim": 5117, "\u2581prosecution": 5118, "\u2581reconstruction": 5119, "\u2581commission": 5120, "\u2581Over": 5121, "\u5927\u97e9\u6c11\u56fd": 5122, "ary": 5123, "\u836f": 5124, "\u2581aims": 5125, "200": 5126, "\u6ca1\u6709\u4efb\u4f55": 5127, "ol": 5128, "\u2581departments": 5129, "para": 5130, "\u2581preparing": 5131, "\u54ea\u4e9b": 5132, "\u2581numbers": 5133, "\u2581\u53ef": 5134, "\u2581fall": 5135, "\u2581expansion": 5136, "\u2581\u6211\u5728": 5137, "\u2581thereby": 5138, "\u7684\u6848\u4ef6": 5139, "\u8bae\u9898": 5140, "\u66ff\u4ee3": 5141, "\u2581empowerment": 5142, "\u72af": 5143, "\u8272": 5144, "\u4f9d\u8d56": 5145, "\u5c42\u9762": 5146, "WP": 5147, "\u5e76\u975e": 5148, "\u9884\u6d4b": 5149, "\u9664\u975e": 5150, "\u9019\u500b": 5151, "\u258157.": 5152, "\u4f7f\u5f97": 5153, "\u9c81": 5154, "\u2581anyone": 5155, "\u2581transactions": 5156, "\u8bc9\u8bbc": 5157, "\u6db5\u76d6": 5158, "\u00ed": 5159, "\u9152": 5160, "\u6551": 5161, "\u2581Total": 5162, "item": 5163, "\u2581percentage": 5164, "\u5211\u4e8b": 5165, "\u81ea\u7136\u8d44\u6e90": 5166, "\u2581Power": 5167, "di": 5168, "\u2581Guatemala": 5169, "rd": 5170, "\u2581contributing": 5171, "\u2581Iraqi": 5172, "\u2581opening": 5173, "\u8054\u7edc": 5174, "\u5927\u90e8\u5206": 5175, "\u4e0d\u6269\u6563\u6761\u7ea6": 5176, "os": 5177, "\u258157": 5178, "\u2581AIDS": 5179, "\u2581entity": 5180, "\u4e0d\u5230": 5181, "\u6280\u80fd": 5182, "\u2581allocation": 5183, "ton": 5184, "\u503c\u5f97": 5185, "\u2581Bangladesh": 5186, "\u9752\u5c11\u5e74": 5187, "\u2581element": 5188, "\u2581accused": 5189, "ia": 5190, "\u2581Task": 5191, "ling": 5192, "84": 5193, "ism": 5194, "\u529e": 5195, "\u2581supplies": 5196, "\u8d28\u91cf": 5197, "\u2581Movement": 5198, "\u2581protected": 5199, "\u622a\u81f3": 5200, "\u2581\u7f8e\u56fd": 5201, "\u95ee\u9898\u7279\u522b\u62a5\u544a\u5458": 5202, "out": 5203, "\u513f\u7ae5\u6743\u5229": 5204, "\u2581\u771f": 5205, "\u963f\u5c14\u53ca\u5229\u4e9a": 5206, "\u2581Preparatory": 5207, "\u8054\u5408\u4f1a": 5208, "\u53ef\u5728": 5209, "\u6700\u597d": 5210, "\u2581latter": 5211, "\u515a": 5212, "\u5927\u5bb6": 5213, "\u6e14\u4e1a": 5214, "\u7684\u5173\u952e": 5215, "\u2581chemical": 5216, "\u6838\u88c1\u519b": 5217, "\u2581\u5b83\u4eec": 5218, "\u5f85\u9047": 5219, "\u513f": 5220, "\u2581bit": 5221, "\u8868\u793a\u5173\u5207": 5222, "94": 5223, "\u2581sustainability": 5224, "\u2581primarily": 5225, "\u53d1\u5c55\u4e2d\u56fd\u5bb6\u7684": 5226, "\u00f3": 5227, "ter": 5228, "\u2581Use": 5229, "\u6240\u4ee5": 5230, "\u2581names": 5231, "Corr": 5232, "\u2581\u53ef\u4ee5": 5233, "\u2581message": 5234, "\u514b\u7f57\u5730\u4e9a": 5235, "\u63d0\u51fa\u62a5\u544a": 5236, "\u9664\u4e86": 5237, "\u2581grave": 5238, "\u548c\u6280\u672f": 5239, "\u7684\u5b9a\u4e49": 5240, "\u2581identifying": 5241, "\u2581enter": 5242, "\u2581Like": 5243, "\u2581unable": 5244, "\u53cc\u8fb9": 5245, "\u2581Comprehensive": 5246, "\u6548\u7387": 5247, "\u2581worldwide": 5248, "\u6280\u672f\u548c": 5249, "\u2581geographical": 5250, "\u5723": 5251, "shad": 5252, "\u4eba\u6743\u95ee\u9898": 5253, "\u2581Taking": 5254, "\u96c6\u4f53": 5255, "\u2581recalled": 5256, "\u57ce": 5257, "\u5236\u5b9a\u4e86": 5258, "\u2581produce": 5259, "\u2581attended": 5260, "\u65c5\u884c": 5261, "\u4e00\u5957": 5262, "\u2581instance": 5263, "\u300d": 5264, "\u2581factor": 5265, "\u5f15\u6e21": 5266, "\u8d27": 5267, "\u2581join": 5268, "\u6559\u5e08": 5269, "et": 5270, "\u7684\u5ba1\u8bae": 5271, "\u2581myself": 5272, "\u2581legitimate": 5273, "\u2581protecting": 5274, "\u2581remedies": 5275, "\u63d0\u9192": 5276, "\u2581Even": 5277, "\u2581penalty": 5278, "ian": 5279, "\u5f00\u5c55\u4e86": 5280, "\u9a6c\u6765\u897f\u4e9a": 5281, "\u9014\u5f84": 5282, "\u2581La": 5283, "\u2581impacts": 5284, "\u5b57": 5285, "\u2581cycle": 5286, "terrorism": 5287, "\u2581ill": 5288, "\u878d\u8d44": 5289, ".9/": 5290, "\u5df4\u52d2\u65af\u5766\u4eba\u6c11": 5291, "\u800c\u662f": 5292, "\u2581adaptation": 5293, "\u25812001.": 5294, "\u2581attend": 5295, "\u2581\ue707": 5296, "\u5f00\u5c55\u5de5\u4f5c": 5297, "\u2581\u8fd9\u6837": 5298, "\u5a1c": 5299, "\u2581UNODC": 5300, "\u2581Poland": 5301, "\u2581wouldn": 5302, "\u73b0\u884c": 5303, "\u2581learning": 5304, "\u2581Belarus": 5305, "\u4fee\u6b63\u6848": 5306, "\u4e13\u4e1a\u4eba\u5458": 5307, "\u258158.": 5308, "\u52a0\u5feb": 5309, "\u514b\u670d": 5310, "\u8bbe\u6cd5": 5311, "\u540e\u7eed\u884c\u52a8": 5312, "\u2581Informal": 5313, "\u7684\u8d21\u732e": 5314, "\u4e9b": 5315, "\u4e5f\u4e0d": 5316, "\u662f\u4e2a": 5317, "\u7f16": 5318, "\u770b\u770b": 5319, "\u9ad8\u5ea6": 5320, "\u2581duties": 5321, "\u7684\u7acb\u573a": 5322, "\u2581OIOS": 5323, "\u2581reiterated": 5324, "\u6280\u672f\u63f4\u52a9": 5325, "\u4fdd": 5326, "\u8fd0": 5327, "\u5c3d": 5328, "\u2581confirmed": 5329, "\u2581enjoy": 5330, "\u2581liability": 5331, "\u2581employees": 5332, "\u2581etc": 5333, "\u88c1\u519b\u8c08\u5224\u4f1a\u8bae": 5334, "\u2581designated": 5335, "\u2581\u6b63\u5982": 5336, "\u2581perpetrators": 5337, "\u8001\u5e74\u4eba": 5338, "\u8ba4\u53ef": 5339, "\u2581allocated": 5340, "\u7761": 5341, "\u2581fifth": 5342, "\u4eba\u9053\u4e3b\u4e49\u63f4\u52a9": 5343, "\u2581regulation": 5344, "\u2581acting": 5345, "\u2581Part": 5346, "\u63d0\u540d": 5347, "\u2581Red": 5348, "\u2581\u4f60\u597d": 5349, "\u80af\u5c3c\u4e9a": 5350, "\u63d0\u8bf7": 5351, "\u963b\u788d": 5352, "\u4ea7\u51fa": 5353, "\u4e48": 5354, "\u72b6\u6001": 5355, "\u7ee7\u7eed\u52aa\u529b": 5356, "\u59d4\u5458\u4f1a\u6210\u5458": 5357, "lo": 5358, "\u963f\u585e\u62dc\u7586": 5359, "\u8d70\u4e86": 5360, "\u5f80": 5361, "\u25812000.": 5362, "\u2581productive": 5363, "\u2581Me": 5364, "\u5468\u671f": 5365, "\u66f4\u597d\u5730": 5366, "conflict": 5367, "\u88c1\u51b3": 5368, "\u7684\u53d1\u8a00": 5369, "\u8d2d\u4e70": 5370, "ou": 5371, "\u7279\u522b\u4f1a\u8bae": 5372, "\u258159.": 5373, "\u2581examine": 5374, "age": 5375, "\u6307\u793a": 5376, "\u2581Malaysia": 5377, "\u67ec\u57d4\u5be8": 5378, "\u8d44\u672c": 5379, "\u2581Professional": 5380, "\u683c\u9c81\u5409\u4e9a": 5381, "\u2581accept": 5382, "\u5e0c\u814a": 5383, "\u5e9f\u7269": 5384, "\u2581partner": 5385, "\u2581details": 5386, "\u513f\u7ae5\u6743\u5229\u516c\u7ea6": 5387, "\u8be2\u95ee": 5388, "\u7b2c\u4e09": 5389, "\u6839\u636e\u7b2c": 5390, "\u2581Peoples": 5391, "\u624e": 5392, "\u6761\u8349\u6848": 5393, "\u2581LDCs": 5394, "\u2581noting": 5395, "\u8d44\u683c": 5396, "\u524d\u5f80": 5397, "\u7ea6\u65e6": 5398, "\u2581Follow": 5399, "\u2581impunity": 5400, "\u2581Year": 5401, "\u2581\u5c0f": 5402, "\u2581Jordan": 5403, "\u2581believes": 5404, "\u2581safeguards": 5405, "\u60e9\u7f5a": 5406, "\u793e\u4f1a\u53d1\u5c55": 5407, "\u2581Nairobi": 5408, "\u2581vehicles": 5409, "\u2581shows": 5410, "\u2581older": 5411, "\u603b\u7406": 5412, "\u2581Paragraph": 5413, "\u2581ahead": 5414, "\u53d1\u653e": 5415, "\u7684\u53c2\u4e0e": 5416, "\u7f05\u7538": 5417, "\u62df": 5418, "\u2581numerous": 5419, "\u9500\u6bc1": 5420, "\u65b0\u95fb\u90e8": 5421, "\u6c11": 5422, "ty": 5423, "\u2581(212)": 5424, "\u4e3b\u4efb": 5425, "\u5f00\u652f": 5426, "\u8d85": 5427, "\u7684\u6761\u4ef6": 5428, "ate": 5429, "agency": 5430, "\u2581consultative": 5431, "\u4f9d": 5432, "\u2581\u5fc5\u987b": 5433, "\u5de9\u56fa": 5434, "\u2581circulated": 5435, "\u2581\u5662": 5436, "\u5de5\u8d44": 5437, "\u7b7e\u540d": 5438, "\u6740": 5439, "\u2581decrease": 5440, "\u2581bringing": 5441, "\u258160.": 5442, "\u2581\u8003\u8651\u5230": 5443, "\u2581chap": 5444, "\u2581\u5c0d": 5445, "\u8d29\u8fd0": 5446, "\u2581sign": 5447, "\u90fd\u6709": 5448, "\u2581haven": 5449, "\u53d1\u5c55\u548c": 5450, "\u8bed\u6587": 5451, "\u2581settlements": 5452, "\u2581verification": 5453, "\u6211\u60f3": 5454, "\u6709\u673a\u4f1a": 5455, "\u2581gas": 5456, "\u8bc1\u5b9e": 5457, "\u4f2f": 5458, "\u2581sanitation": 5459, "\u7edd\u5bf9": 5460, "\u2581\u4e94": 5461, "\u7684\u7b54\u590d": 5462, "\u2581400": 5463, "\u76ee\u524d\u6b63\u5728": 5464, "\u2581Coordinator": 5465, "\u51fa\u7248": 5466, "\u4ecd\u7136\u662f": 5467, "\u2581Forces": 5468, "\u2581grateful": 5469, "\u2581leaving": 5470, "\u2581specified": 5471, "\u585e\u5185\u52a0\u5c14": 5472, "\u2581cut": 5473, "\u76f8\u5f53": 5474, "\u4eba\u6743\u9ad8\u4e13\u529e": 5475, "\u2581binding": 5476, "\u2581comes": 5477, "\u96c7\u4e3b": 5478, "\u2581maximum": 5479, "\u5750": 5480, "\u6839": 5481, "\u2581Expert": 5482, "\u5f3a\u5978": 5483, "\u88ab\u544a": 5484, "\u4e94\u4e2a": 5485, "\u2581husband": 5486, "\u2581Strategic": 5487, "\u6709\u6240": 5488, "\u7ba1\u8f96": 5489, "\u2581birth": 5490, "ti": 5491, "\u2581guide": 5492, "\u2581reviews": 5493, "\u4e24\u540d": 5494, "\u2581widely": 5495, "\u653f\u7b56\u548c": 5496, "/56/": 5497, "\u2581Welcomes": 5498, "\u2581principal": 5499, "no": 5500, "\u2581publications": 5501, "\u4e13": 5502, "\u2581uh": 5503, "\u6b21\u7ea7\u65b9\u6848": 5504, "\u5df2\u7d93": 5505, "\u963f\u62c9\u4f2f\u53d9\u5229\u4e9a\u5171\u548c\u56fd": 5506, "\u2581coordinate": 5507, "\u4fc4": 5508, "\u7684\u793e\u4f1a": 5509, "\u2581dignity": 5510, "ized": 5511, "(1)": 5512, "\u2581Eritrea": 5513, "\u6b66\u88c5\u90e8\u961f": 5514, "\u6c42": 5515, "\u2581thinking": 5516, "\u2581daily": 5517, "\u73b0\u5b9e": 5518, "\u5973\u7ae5": 5519, "\u7684\u4e00\u5207": 5520, "\u707e\u5bb3": 5521, "\u4e0e\u5176": 5522, "\u2581Uh": 5523, "\u7acb\u573a": 5524, "\u2581Ministerial": 5525, "\u5b9e\u73b0\u5343\u5e74\u53d1\u5c55\u76ee\u6807": 5526, "\u6e05": 5527, "\u77f3\u6cb9": 5528, "\u2581pilot": 5529, "92": 5530, "mo": 5531, "\u7684\u51b3\u8bae": 5532, "\u6e05\u695a": 5533, "\u5404\u4f1a\u5458\u56fd": 5534, ".10": 5535, "\u2581substances": 5536, "\u5341": 5537, "\u6267\u6cd5": 5538, "\u9762\u5bf9": 5539, "\u7a81\u5c3c\u65af": 5540, "\u82e5": 5541, "\u2581incidents": 5542, "\u2581refer": 5543, "\u2581figure": 5544, "\u5e94\u4ed8": 5545, "\u2581affecting": 5546, "\u675c": 5547, "\u2581judge": 5548, "\u7d22\u8d54\u4eba": 5549, "\u2581constructive": 5550, "\u7b2c\u4e8c\u6b21": 5551, "ka": 5552, "\u2581advocacy": 5553, "\u7684\u76ee\u7684\u662f": 5554, "\u52a9\u7406": 5555, "\u2581\u4e00\u4e9b": 5556, "\u258161.": 5557, "\u5e08": 5558, "6%": 5559, "\u2581Serbia": 5560, "ho": 5561, "\u2581occurred": 5562, "\u542c\u5230": 5563, "\u767e": 5564, "\u8be5\u533a\u57df": 5565, "\u2581h": 5566, "\u641e": 5567, "\u6642": 5568, "\u9519\u8bef": 5569, "\u2581hoc": 5570, "\u2581\u4fc3\u8fdb": 5571, "\u53f7\u51b3\u8bae\u4e2d": 5572, "ard": 5573, "\u2581uses": 5574, "\u2581dispute": 5575, "\u665a": 5576, "\u6559\u79d1\u6587\u7ec4\u7ec7": 5577, "\u2581Accordingly": 5578, "\u2581looks": 5579, "\u4e3b\u8981\u662f": 5580, "\u9881\u5e03": 5581, "\u666e\u901a": 5582, "\u83b7": 5583, "\u2581Supplement": 5584, "\u2581pending": 5585, "\u603b\u989d": 5586, "\u2581represent": 5587, "\u2581\u4f1a": 5588, "\u6700\u9ad8\u6cd5\u9662": 5589, "\u2581reaffirmed": 5590, "\u7ba1\u7406\u548c": 5591, "\u2581assisting": 5592, "\u610f\u5473\u7740": 5593, "\u2581ILO": 5594, "\u2581hoped": 5595, "\u53d6\u51b3\u4e8e": 5596, "\u8ddf\u6211": 5597, "\u5e72\u9884": 5598, "\u5175": 5599, "\u53ea\u8981": 5600, "\u5931": 5601, "\u8d8a": 5602, "\u258164": 5603, "raising": 5604, "\u2581news": 5605, "\u2581examination": 5606, "\u5b66\u9662": 5607, "\u7b79\u5907\u59d4\u5458\u4f1a": 5608, "\u5dee\u5f02": 5609, "\u7f57\u9a6c\u5c3c\u4e9a": 5610, "\u2581Nepal": 5611, "\u6551\u6d4e": 5612, "ak": 5613, "\u9053\u5fb7": 5614, "\u8c08": 5615, "\u63d0\u4f9b\u652f\u52a9": 5616, "\u4e00\u76f4\u5728": 5617, "\u8fd9\u4e00\u95ee\u9898": 5618, "\u2581reasonable": 5619, "\u2581Belgium": 5620, "\u9762\u4e34\u7684": 5621, "\u51fa\u751f": 5622, "\u73b0\u91d1": 5623, "\u7ecf\u6d4e\u53d1\u5c55": 5624, "\u5b98": 5625, "III": 5626, "\u2581judiciary": 5627, "\u2581investments": 5628, "\u6587\u672c": 5629, "\u2581troops": 5630, "\u2581web": 5631, "\u8861\u91cf": 5632, "\u8865\u8d34": 5633, "\u8d6b": 5634, "\u2581nine": 5635, "\u4e89\u7aef": 5636, "\u5f15\u8d77": 5637, "\u2581chemicals": 5638, "\u2581focal": 5639, "\u2581\u4f60\u60f3": 5640, "\u2581happy": 5641, "\u2581drawn": 5642, "\u4e66\u9762": 5643, "\u63a8\u5e7f": 5644, "\u2581began": 5645, "\u5185\u7684": 5646, "\u2581innovative": 5647, "\u2581pro": 5648, "\u2581suffering": 5649, "\u4efb\u4f55\u4eba": 5650, "\u2581top": 5651, "\u2581Torture": 5652, "\u2581observer": 5653, "\u2581\u5bf9\u4e0d\u8d77": 5654, "\u836f\u7269": 5655, "\u2581send": 5656, "\u5f88\u5927": 5657, "\u2581calling": 5658, "\u76ee": 5659, "\u2581obtained": 5660, "\u2581Reaffirming": 5661, "\u2581stations": 5662, "\u89c9\u5f97": 5663, "\u71c3\u6599": 5664, "\u804c\u52a1": 5665, "\u2581Ecuador": 5666, "\u7684\u8bf4\u660e": 5667, "\u2581Denmark": 5668, "\u2581choice": 5669, "\u8bc1": 5670, "\u5c0f\u5c9b\u5c7f\u53d1\u5c55\u4e2d\u56fd\u5bb6": 5671, "\u6c99\u7279\u963f\u62c9\u4f2f": 5672, "\u7684\u5168\u9762": 5673, "\u5171\u6709": 5674, "+": 5675, "\u2581committees": 5676, "\u5e73\u53f0": 5677, "\u2581improvements": 5678, "\u2581indeed": 5679, "\u7684\u751f\u6d3b": 5680, "\u7f8e\u6d32": 5681, "\u8fc7\u6765": 5682, "\u2581controls": 5683, "\u517b\u6064\u91d1": 5684, "\u4f5c\u51fa\u7684": 5685, "\u2581Budget": 5686, "\u2581\u53ea\u6709": 5687, "\u2581prisoners": 5688, "all": 5689, "\u4e0a\u6587\u7b2c": 5690, "\u8650\u5f85": 5691, "\u2581Romania": 5692, "\u2581vulnerability": 5693, "\u8c03\u89e3": 5694, "\u2581\u8c01": 5695, "\u5b9e\u9645\u4e0a": 5696, "XX": 5697, "\u2581grant": 5698, "\u958b": 5699, "\u6700\u521d": 5700, "\u25812009.": 5701, "\u2581Sri": 5702, "\u2581achievements": 5703, "\u2581constraints": 5704, "\u2581Le": 5705, "\u611b": 5706, "\u2581Costa": 5707, "\u65cf": 5708, "\u65b9\u5411": 5709, "\u258162.": 5710, "\u5dee\u8ddd": 5711, "\u79ef\u6781\u53c2\u4e0e": 5712, "\u2581Mo": 5713, "\u2581Tell": 5714, "\u8461\u8404\u7259": 5715, "\u2581pretty": 5716, "\u9996\u6b21": 5717, "\u2581receiving": 5718, "\u2581Kyoto": 5719, "\u2581Mrs": 5720, "\u62a4\u7406": 5721, "\u2581maybe": 5722, "\u5e2e": 5723, "\u7acb": 5724, "\u5f39\u836f": 5725, "\u2581easy": 5726, "\u6392": 5727, "mail": 5728, "\u2581burden": 5729, "\u8fd8\u5728": 5730, "\u5143": 5731, "\u771f\u6b63\u7684": 5732, "\u2581moment": 5733, "\u2581unilateral": 5734, "\u2581panel": 5735, "\u7981": 5736, "\u6c11\u4f17": 5737, "\u2581wants": 5738, "\u4ef2\u88c1": 5739, "\u9a71\u9010": 5740, "\u8d8a\u6765\u8d8a": 5741, "um": 5742, "\u745e": 5743, "\u8fbe\u5c14\u5bcc\u5c14": 5744, "\u5e76\u672a": 5745, "\u2581tried": 5746, "\u2581modalities": 5747, "\u2581agency": 5748, "\u534f\u8c03\u5458": 5749, "\u2581fear": 5750, "\u2581UNESCO": 5751, "\u548c\u6267\u884c": 5752, "\u5384\u74dc\u591a\u5c14": 5753, "\u89c2\u70b9": 5754, "\u4e16\u754c\u94f6\u884c": 5755, "\u662f\u56e0\u4e3a": 5756, "\u2581differences": 5757, "\u2581migrant": 5758, "\u7684\u6838\u5fc3": 5759, "\u2581jointly": 5760, "\u2581gap": 5761, "\u2581became": 5762, "\u4f20": 5763, "\u548c\u5efa\u8bae": 5764, "\u663e\u7136": 5765, "\u4f5c\u51fa\u51b3\u5b9a": 5766, "\u9ad8\u7ea7\u522b": 5767, "\u57fa\u7840\u4e0a": 5768, "\u2581link": 5769, "\u2581Model": 5770, "\u2581proliferation": 5771, "\u4ea4\u4ed8": 5772, "\u7684\u5b9e\u9645": 5773, "\u8425\u517b": 5774, "\u2581Eastern": 5775, "://": 5776, "\u89c6\u4e3a": 5777, "\u2581located": 5778, "\u8bbe\u7acb\u7684": 5779, "\u4ed8": 5780, "\u6539": 5781, "\u2581proportion": 5782, "\u5728\u90a3\u91cc": 5783, "\u5b9e\u5730": 5784, "\u6240\u8f7d": 5785, "\u2581\u8bb8\u591a": 5786, "\u7684\u540e\u7eed\u884c\u52a8": 5787, "\u2581guarantees": 5788, "\u2581subsequently": 5789, "\u2581option": 5790, "\u2581Rica": 5791, "\u2581Lanka": 5792, "\u2581Peacebuilding": 5793, "\u2581Venezuela": 5794, "\u5730\u7403": 5795, "\u59a8\u788d": 5796, "\u4e0b\u6765": 5797, "\u6350\u52a9": 5798, "\u5148\u524d": 5799, "\u2581guess": 5800, "\u98df\u54c1": 5801, "\u89c4\u5b9a\u4e86": 5802, "\u2581humanity": 5803, "\u2581rapid": 5804, "\u2581Beijing": 5805, "\u884c\u4e1a": 5806, "\u2581campaigns": 5807, "\u2581Counter": 5808, "IV": 5809, "\u258151": 5810, "\u2581deliberations": 5811, "\u2581regularly": 5812, "\u2581scheduled": 5813, "\u2581OK": 5814, "\u5931\u4e1a": 5815, "\u2581changed": 5816, "\u4efb\u671f": 5817, "\u65cf\u88d4": 5818, "\u2581capabilities": 5819, "\u6bcf\u4e00": 5820, "\u4e0e\u53d1\u5c55": 5821, "\u4f4e\u4e8e": 5822, "\u2581Excellency": 5823, "\u603b\u4f53": 5824, "\u2581\u4e0a\u5348": 5825, "\u5e76\u9f13\u52b1": 5826, "\u5de5\u4f1a": 5827, "\u6700\u4f4e": 5828, "\u2581closed": 5829, "\u9075\u5faa": 5830, "\u2581felt": 5831, "\u7ecf\u5e38\u9884\u7b97": 5832, "\u81f4": 5833, "\u4e0b\u7684": 5834, "\u2581degree": 5835, "\u7684\u4e2a\u4eba": 5836, "\u2581\u59d4\u5458\u4f1a\u6ce8\u610f\u5230": 5837, "\u2581Military": 5838, "\u5f71\u54cd\u5230": 5839, "\u6bcf\u5929": 5840, "\u2581governmental": 5841, "\u4e3b\u5f20": 5842, "\u2581prostitution": 5843, "\u548c\u7ba1\u7406": 5844, "\u65af\u6d1b\u6587\u5c3c\u4e9a": 5845, "\u258163.": 5846, "\u4e24\u5e74": 5847, "\u548c\u52a0\u5f3a": 5848, "\u2581seems": 5849, "\u6d77\u5173": 5850, "\u2581incorporated": 5851, "\u2581Statistics": 5852, "\u662f\u7531": 5853, "\u2581Dad": 5854, "\u517c": 5855, "ial": 5856, "\u7684\u72b6\u51b5": 5857, "\u2581preventive": 5858, "\u2581technological": 5859, "\u8d5b": 5860, "\u8865\u507f": 5861, "\u2581mandated": 5862, "\u5168\u4f53\u4f1a\u8bae": 5863, "\u4eac\u90fd\u8bae\u5b9a\u4e66": 5864, "\u8868\u73b0": 5865, "\u4ee5\u4fc3\u8fdb": 5866, "\u591a\u5c11": 5867, "\u2581Angola": 5868, "\u2581Having": 5869, "\u76d1\u7981": 5870, "\u6682\u505c": 5871, "\u2581radio": 5872, "\u2581\u5df2": 5873, "\u2581quite": 5874, "INF": 5875, "\u6ee5\u7528": 5876, "\u2581disputes": 5877, "\u6ce8\u91cd": 5878, "\u25812013,": 5879, "\u2581test": 5880, "\u8ba9\u4f60": 5881, "\u2581outlined": 5882, "\u5bfb\u627e": 5883, "\u2581declared": 5884, "\u2581Change": 5885, "\u5efa": 5886, "\u2581users": 5887, "\u2581\u5bfc\u8a00": 5888, "\u901a\u8baf": 5889, "\u592b\u4eba": 5890, "\u7684\u673a\u6784": 5891, "\u2581extreme": 5892, "\u5b5f\u52a0\u62c9\u56fd": 5893, "\u2581contain": 5894, "\u9322": 5895, "\u2581Activities": 5896, "\u53d6\u4ee3": 5897, "\u5242": 5898, "\u2581transmitted": 5899, "\u2581resumed": 5900, "\u96c7\u7528": 5901, "UNEP": 5902, "\u2581letters": 5903, "me": 5904, "(2)": 5905, "\u2581door": 5906, "\u2581600": 5907, "/1": 5908, "\u2581Arabia": 5909, "\u5179": 5910, "\u2581Only": 5911, ".11": 5912, "\u8f6e": 5913, "\u2581search": 5914, "\u6765\u7684": 5915, "\u52b3\u5de5": 5916, "\u2581Paris": 5917, "\u300b;": 5918, "\u2581violated": 5919, "\u2581\u5176\u4e2d": 5920, "\u6d88\u9664\u8d2b\u7a77": 5921, "\u2581Strengthening": 5922, "\u5b89\u5168\u7406\u4e8b\u4f1a\u7b2c": 5923, "\u9519": 5924, "\u7ea2": 5925, "\u7a0e": 5926, "\u2581recognizes": 5927, "\u88ab\u89c6\u4e3a": 5928, "\u2581powers": 5929, "EC": 5930, "\u2581extensive": 5931, "\u25811997,": 5932, "\u2581size": 5933, "our": 5934, "\u2581Encourages": 5935, "\u7684\u540c\u65f6": 5936, "\u7684\u6280\u672f": 5937, "\u66fe\u7ecf": 5938, "\u82f1\u56fd": 5939, "\u2581happen": 5940, "\u653e\u5728": 5941, "\u5c1a": 5942, "\u2581probably": 5943, "\u2581\u5b89\u7406\u4f1a": 5944, "\u2581briefing": 5945, "\u2581\u6211\u4eec\u8ba4\u4e3a": 5946, "\u5927\u89c4\u6a21\u6bc1\u706d\u6027\u6b66\u5668": 5947, "\u5efa\u9020": 5948, "\u2581Oversight": 5949, "\u2581seminars": 5950, "\u5377": 5951, "da": 5952, "\u2581arrested": 5953, "\u5927\u89c4\u6a21": 5954, "\u7684\u76f8\u5173": 5955, "\u258164.": 5956, "ov": 5957, "1%": 5958, "\u2581permit": 5959, "\u5343": 5960, "\u5916\u4ea4\u90e8\u957f": 5961, "\u540c\u4e00": 5962, "q": 5963, "\u4e86\u4e00\u4e2a": 5964, "\u52a0\u901f": 5965, "CO": 5966, "\u2581writing": 5967, "\u72d7": 5968, "\u4e94\u5e74": 5969, "\u2581hit": 5970, "\u6279\u51c6\u4e86": 5971, "\u4e5f\u6709": 5972, "\u6e90": 5973, "\u2581background": 5974, "\u7684\u4e16\u754c": 5975, "\u89e3\u9664\u6b66\u88c5": 5976, "\u6b7b\u5211": 5977, "\u2581Y": 5978, "\u4eb2": 5979, "\u7ed3": 5980, "\u8bb8\u53ef": 5981, "off": 5982, "\u7ef4\u4e5f\u7eb3": 5983, "\u8be5\u59d4\u5458\u4f1a": 5984, "\u90a3\u91cc": 5985, "\u2581Given": 5986, "\u2581Urges": 5987, "\u2581pressure": 5988, "\u8bcd": 5989, "\u2581Safety": 5990, "\u2581imprisonment": 5991, "\u2581assigned": 5992, "\u2581\u4ee5\u8272\u5217": 5993, "\u2581covering": 5994, "\u5c0f\u59d0": 5995, "\u2581Portugal": 5996, "\u53d1\u8a00\u8005": 5997, "\u2581staffing": 5998, "\u5371\u5bb3": 5999, "\u2581San": 6000, "\u2581Give": 6001, "\u600e\u4e48\u6837": 6002, "\u2581announced": 6003, "\u2581vision": 6004, "\u6885": 6005, "\u2581expanded": 6006, "\u258165": 6007, "\u6208": 6008, "\u2581\u786e\u4fdd": 6009, "\u2581Chinese": 6010, "\u56de\u53bb": 6011, "\u2581Work": 6012, "\u4e00\u4e9b\u56fd\u5bb6": 6013, "\u81ea\u7136\u707e\u5bb3": 6014, "\u7684\u7814\u7a76": 6015, "\u2581break": 6016, "\u6267\u884c\u4e3b\u4efb": 6017, "\u6c47\u62a5": 6018, "\u52a1": 6019, "\u5927\u4e0d\u5217\u98a0\u53ca\u5317\u7231\u5c14\u5170\u8054\u5408\u738b\u56fd": 6020, "\u4e1c\u9053\u56fd": 6021, "\u7684\u770b\u6cd5": 6022, "\u5c11\u6570\u6c11\u65cf": 6023, "Commission": 6024, "\u5bc6\u5207": 6025, "\u2581Violence": 6026, "\u2581unemployment": 6027, "\u2581century": 6028, "\u662f\u4e00\u79cd": 6029, "\u8fd9\u4e9b\u95ee\u9898": 6030, "\u2581Equality": 6031, "\u2581joined": 6032, "\u2581Independent": 6033, "\u5ba1\u8ba1\u59d4\u5458\u4f1a": 6034, "\u4e0d\u5e73\u7b49": 6035, "\u5c3c\u6cca\u5c14": 6036, "\u56da\u72af": 6037, "\u4e2d\u4e1c": 6038, "\u4e0d\u4e86": 6039, "\u2581examined": 6040, "\u2581convened": 6041, "\u2581mines": 6042, "\u2581charges": 6043, "\u6548\u529b": 6044, "\u2581Records": 6045, "go": 6046, "\u258165.": 6047, "\u2581ones": 6048, "\u63d0\u51fa\u5efa\u8bae": 6049, "\u63d0\u4ea4\u7ed9": 6050, "\u7740\u624b": 6051, "\u2581invitation": 6052, "\u2581dangerous": 6053, "\u2581solidarity": 6054, "\u8ba2\u6b63": 6055, "\u2581Platform": 6056, "\u2581sale": 6057, ".12": 6058, "atar": 6059, "\u5b58": 6060, "\u54e5": 6061, "\u5fc3\u7406": 6062, "\u2581\u518d": 6063, "\u5f7b\u5e95": 6064, "\u653f\u515a": 6065, "\u2581sometimes": 6066, "91": 6067, "\u6839\u672c": 6068, "ha": 6069, "\u7c7b\u578b": 6070, "\u5f53\u7136": 6071, "\u5ba2\u6237": 6072, "\u2581coordinating": 6073, "\u2581coherence": 6074, "\u5c11\u6570\u7fa4\u4f53": 6075, "\u2581tomorrow": 6076, "\u2581mental": 6077, "\u4f9b\u5e94\u5546": 6078, "\u56de\u5bb6": 6079, "\u5b9e": 6080, "ance": 6081, "\u843d": 6082, "\u258180": 6083, "\u2581Man": 6084, "\u561b": 6085, "\u65af\u7279": 6086, "\u6709\u70b9": 6087, "\u5385": 6088, "\u76f4": 6089, "\u2581product": 6090, "\u2581tonight": 6091, "\u6027\u522b\u5e73\u7b49": 6092, "\u2581rape": 6093, "\u2581clean": 6094, "\u7684\u4e1c\u897f": 6095, "\u2581attached": 6096, "\u96c6\u4e2d": 6097, "\u4e2d\u6709": 6098, "ba": 6099, "/3": 6100, "\u2581nationals": 6101, "**": 6102, "\u258152": 6103, "\u2581eat": 6104, "led": 6105, "\u6df1\u5165": 6106, "\u6000\u7591": 6107, "\u258170": 6108, "\u5c42": 6109, "\u2581listen": 6110, "\u62c5\u4fdd": 6111, "\u2581eyes": 6112, "\u2581helping": 6113, "\u2581\u7b49\u7b49": 6114, "\u4e0a\u5347": 6115, "\u2581Additional": 6116, "\u8865\u7f16\u7b2c": 6117, "\u2581expand": 6118, "\u2581foster": 6119, "\u4f30\u8ba1\u6570": 6120, "\u7231\u5c14\u5170": 6121, "\u89c4\u6a21": 6122, "\u2581\u6309": 6123, "\u4e3b\u6301": 6124, "\u4e25\u683c": 6125, "\u2581Each": 6126, "\u2581Climate": 6127, "\u98de": 6128, "\u602a": 6129, "\u2581condition": 6130, "\u7ba1\u7406\u5c40": 6131, "\u76f8\u5bf9": 6132, "\u804c\u7b49": 6133, "\u2581mobilization": 6134, "\u8be5\u62a5\u544a": 6135, "\u6539\u4e3a": 6136, "\u8868\u8fbe": 6137, "\u7576": 6138, "per": 6139, "\u53e3\u5934": 6140, "\u6240\u89c4\u5b9a\u7684": 6141, "\u2581knows": 6142, "7%": 6143, "\u6377\u514b\u5171\u548c\u56fd": 6144, "\u2581Cambodia": 6145, "\u5357\u5357\u5408\u4f5c": 6146, "\u5bc6": 6147, "\u6b21\u533a\u57df": 6148, "\u8bbe": 6149, "\u258190": 6150, "\u2581extension": 6151, "\u2581soldiers": 6152, "\u2581selection": 6153, "\u5ba1\u67e5\u4e86": 6154, "\u8054\u5408\u56fd\u673a\u6784": 6155, "\u2581front": 6156, "\u7206\u70b8": 6157, "\u5f88\u96be": 6158, "\u51c6\u786e": 6159, "\u2581intolerance": 6160, "\u258163": 6161, "\u2581perform": 6162, "\u6709\u4e49\u52a1": 6163, "\u2581Ha": 6164, "\u2581\u6211\u4e5f": 6165, "\u2581\u771f\u7684": 6166, "\u7684\u98ce\u9669": 6167, "\u2581file": 6168, "\u53cd\u6050": 6169, "\u258166.": 6170, "\u2581acceptance": 6171, "\u2581witnesses": 6172, "\u4e2d\u975e\u5171\u548c\u56fd": 6173, "\u2581links": 6174, "\u2581Foundation": 6175, "\u8d1f\u62c5": 6176, "\u5728\u4e8e": 6177, "\u6240\u6709\u4eba": 6178, "\u2581gaps": 6179, "\u2581\u89c1": 6180, "\u63d0\u4ea4\u62a5\u544a": 6181, "\u2581NPT": 6182, "\u7684\u6709\u5173": 6183, "\u5e38\u5e38": 6184, "\u751f\u6d3b\u5728": 6185, "\u5173\u5fc3": 6186, "\u4ee5\u53ca\u5bf9": 6187, "\u2581advantage": 6188, "\u767d\u4fc4\u7f57\u65af": 6189, "\u8fdb\u6b65": 6190, "\u2581roles": 6191, "\u2581helped": 6192, "\u900f\u660e": 6193, "\u4e0d\u60f3": 6194, "\u5f00\u5c55\u7684": 6195, "\u597d\u4e86": 6196, "\u96c6": 6197, "\u4e16\u8d38\u7ec4\u7ec7": 6198, "\u7684\u4eba\u6570": 6199, "\u5e36": 6200, "\u2581examples": 6201, "\u2581died": 6202, "\u2581\u6700\u8fd1": 6203, "\u52a0\u7eb3": 6204, "\u7684\u57f9\u8bad": 6205, "ang": 6206, "\u6c5e": 6207, "\u56fd\u9645\u4eba\u9053\u4e3b\u4e49\u6cd5": 6208, "\u2581yes": 6209, "\u2581relevance": 6210, "\u2581comment": 6211, "\u751f\u6001\u7cfb\u7edf": 6212, "he": 6213, "\u9762\u524d": 6214, "\u89c2\u5bdf": 6215, "\u7684\u8fdb\u5c55": 6216, "\u2581Sixth": 6217, "specific": 6218, "\u2581Afghan": 6219, "\u2581broader": 6220, "\u7269\u54c1": 6221, "\u2581Measures": 6222, "\u2581papers": 6223, "\u62a5\u544a\u8bf4": 6224, "\u754c\u5b9a": 6225, "\u2581check": 6226, "\u2581trend": 6227, "\u9760": 6228, "\u8c41\u514d": 6229, "\u52b3\u5de5\u7ec4\u7ec7": 6230, "ant": 6231, "\u53cd\u6620\u4e86": 6232, "\u6027\u66b4\u529b": 6233, "\u2581location": 6234, "\u661f": 6235, "\u2581processing": 6236, "\u5580\u9ea6\u9686": 6237, "\u30fb": 6238, "\u2581Integrated": 6239, "\u8868\u51b3": 6240, "\u5ba1\u8bc4": 6241, "\u5df4\u52d2\u65af\u5766\u4eba": 6242, "\u2581Greece": 6243, "\u2581Planning": 6244, "izing": 6245, "\u2581societies": 6246, "\u63d0\u51fa\u7684\u5efa\u8bae": 6247, "\u6076\u5316": 6248, "\u2581seminar": 6249, "\u8428\u5c14\u74e6\u591a": 6250, "\u5ea7": 6251, "\u2581town": 6252, "Habitat": 6253, "\u2581segment": 6254, "\u53f7\u548c\u7b2c": 6255, "\u2581fighting": 6256, "\u2581manage": 6257, "\u2581\u62b1\u6b49": 6258, "\u7684\u533a\u57df": 6259, "\u2581methodology": 6260, "\u56fd\u9645\u8d38\u6613": 6261, "\u2581teachers": 6262, "\u65af\u91cc\u5170\u5361": 6263, "\u2581exports": 6264, "\u767c": 6265, "\u2581arbitrary": 6266, "\u56de\u5230": 6267, "\u638c\u63e1": 6268, "\u2581jobs": 6269, "\u7684\u7f14\u7ea6\u56fd": 6270, "\u2581associations": 6271, "\u5e74\u4ee3": 6272, "\u6027\u7684": 6273, "\u2581officer": 6274, "\u987f": 6275, "\ue6c8": 6276, "\u4e3a\u671f": 6277, "\u2581goes": 6278, "\u2581influence": 6279, "\u2581thanks": 6280, "\u514d\u8d39": 6281, "\u5b9a\u4e8e": 6282, "\u5728\u6b64": 6283, "\u671d\u9c9c\u6c11\u4e3b\u4e3b\u4e49\u4eba\u6c11\u5171\u548c\u56fd": 6284, "\u5df2\u6709": 6285, "\u2581\u5582": 6286, "\u2581Occupied": 6287, "\u8036": 6288, "Leste": 6289, "\u4f69": 6290, "\u793e\u4f1a\u4fdd\u969c": 6291, "\u8ba4\u771f": 6292, "\u2581update": 6293, "\u2581appear": 6294, "\u2581subjected": 6295, "\u6700\u5927\u7684": 6296, "\u2581seriously": 6297, "\u2581Palestinians": 6298, "\u5c24\u5176\u662f\u5728": 6299, "\u8df3": 6300, "\u798f": 6301, "\u2581\u636e": 6302, "\u2581Agriculture": 6303, "/4": 6304, "\u5347": 6305, "\u2581Friday": 6306, "\u2581phone": 6307, "\u56de\u7b54": 6308, "\u2581belief": 6309, "\u2581\u53ea\u662f": 6310, "\u8be5\u7ec4\u7ec7": 6311, "\u5c65\u884c\u5176": 6312, "\u5308\u7259\u5229": 6313, "\u91c7\u53d6\u7684\u884c\u52a8": 6314, "ous": 6315, "\u2581chance": 6316, "\u6d88\u8d39": 6317, "be": 6318, "\u6211\u662f": 6319, "\u600e\u6837": 6320, "\u2581\u90a3\u4e48": 6321, "\u2581competence": 6322, "\u2581harm": 6323, "\u2581\u786e\u8ba4": 6324, "500": 6325, "\u2581VII": 6326, "\u53e6\u4e00\u4e2a": 6327, "\u2581Mar": 6328, "\u544a": 6329, "\u5b89\u54e5\u62c9": 6330, "old": 6331, "\u63a8": 6332, "\u90bb\u56fd": 6333, "\u6708\u81f3": 6334, "\u4f1a\u8ba1": 6335, "\u2581TO": 6336, "\u2581keeping": 6337, "we": 6338, "\u2581contrary": 6339, "\u66b4\u529b\u884c\u4e3a": 6340, "\u2581deliver": 6341, "\u53d6\u5f97\u8fdb\u5c55": 6342, "\u2581dealt": 6343, "\u4e3a\u57fa\u7840": 6344, "\u7eaa\u5ff5": 6345, "\u98df": 6346, "rs": 6347, "\u2581Issues": 6348, "\u2581Rome": 6349, "\u2581\u4e8b\u5b9e\u4e0a": 6350, "\u2581enterprise": 6351, "\u4fc4\u7f57\u65af": 6352, "\u59d4\u5458": 6353, "\u2581banks": 6354, "\u2581opened": 6355, "\u2581Racial": 6356, "\u5ba1": 6357, "\u7684\u5168\u7403": 6358, "\u2581constitutes": 6359, "\u2581kept": 6360, "\u5e76\u901a\u8fc7": 6361, "\u2581instead": 6362, "\u2581raising": 6363, "\u7f6a\u72af": 6364, "\u53cc": 6365, "\u6700\u5927": 6366, "\u2581investigate": 6367, "\u4e34\u65f6\u8bae\u7a0b": 6368, "\u59cb\u7ec8": 6369, "\u2581Really": 6370, "\u767b": 6371, "\u9c7c": 6372, "\u8ddf\u4f60": 6373, "\u2581g": 6374, "\u6b65": 6375, "\u4e00\u5bb6": 6376, "\u5931\u53bb": 6377, "\u6392\u653e": 6378, "\u2581Number": 6379, "\u6301": 6380, "\u2581Southern": 6381, "\u4ea6": 6382, "\u66f4\u597d\u7684": 6383, "\u2581involve": 6384, "\u2581Senegal": 6385, "\u2581believed": 6386, "\u517b": 6387, "\u2581Tanzania": 6388, "\u53d1\u5e03": 6389, "\u2581envisaged": 6390, "\u56fd\u9645\u6cd5\u9662": 6391, "\u54e5\u65af\u8fbe\u9ece\u52a0": 6392, "\u2581latest": 6393, "\u258167.": 6394, "\u2581regards": 6395, "\u2581unique": 6396, "\u6458\u8981": 6397, "\u2581la": 6398, "\u5c45\u4f4f": 6399, "ge": 6400, "\u2581spread": 6401, "\u751f\u7269\u591a\u6837\u6027": 6402, "\u2581Listen": 6403, "\u548c\u793e\u4f1a": 6404, "\u2581focusing": 6405, "\u5df2\u5728": 6406, "\u7684\u73af\u5883": 6407, "\u7ecf\u6d4e\u548c\u793e\u4f1a": 6408, "\u8fd9\u4e24\u4e2a": 6409, "ay": 6410, "\u7ec4\u6210\u7684": 6411, "\u7535\u89c6": 6412, "\u2581\u55e8": 6413, "\u4e3e\u529e\u4e86": 6414, "\u4e8b\u5148": 6415, "\u2581lines": 6416, "\u2581Representatives": 6417, "\u6350\u52a9\u56fd": 6418, "\u6362": 6419, "\u2581Society": 6420, "\u2581\u9664": 6421, "\u2581War": 6422, "\u5171\u8ba1": 6423, "\u2581answer": 6424, "\u2581embargo": 6425, "\u2581residence": 6426, "\u603b\u662f": 6427, "\u5fc5\u987b\u5728": 6428, "/59/": 6429, "\u2581budgets": 6430, "\u2581demonstrated": 6431, "\u2581story": 6432, "\u8bbe\u5728": 6433, "\u804c": 6434, "/65/": 6435, "sh": 6436, "\u7ecf\u6d4e\u589e\u957f": 6437, "\u4e9a\u7f8e\u5c3c\u4e9a": 6438, "\u98df\u7269": 6439, "\u4e24\u56fd": 6440, "\u2581couldn": 6441, "\u7f14\u7ea6\u56fd\u4f1a\u8bae": 6442, "\u2581Nothing": 6443, "\u7ba1\u8f96\u6743": 6444, "\u59d4\u5458\u4f1a\u4e3b\u5e2d": 6445, "\u4ee5\u53ca\u5176\u4ed6": 6446, "\u5904\u7f5a": 6447, "\u4e3b\u4e49": 6448, "\u2581blood": 6449, "\u6709\u5173\u56fd\u5bb6": 6450, "\u2581moving": 6451, "\u533a\u57df\u7ec4\u7ec7": 6452, "\u9b3c": 6453, "\u548c\u534f\u8c03": 6454, "\u77f3": 6455, "\u2581save": 6456, "\u589e": 6457, "\u2581\u5ba1\u67e5": 6458, "\u53d6\u5f97\u4e86": 6459, "\u4ea7\u751f\u7684": 6460, "\u2581transferred": 6461, "\u2581posed": 6462, "\u2581customs": 6463, "\u76d1\u7ba1": 6464, "\u7684\u7ba1\u7406": 6465, "\u6350\u52a9\u65b9": 6466, "\u6ee1": 6467, "\u5b8c": 6468, "\u2581code": 6469, "\u2581married": 6470, "\u2581combined": 6471, "\u2581worry": 6472, "\u6e29": 6473, "\u2581ended": 6474, "\u6001\u5ea6": 6475, "\u6cd5\u4ee4": 6476, "\u7a0b": 6477, "\u4e25\u91cd\u7684": 6478, "\u2581Takes": 6479, "\u7684\u63d0\u8bae": 6480, "\u2581figures": 6481, "\u2581launch": 6482, "\u2581traffic": 6483, "\u2581withdrawal": 6484, "\u2581corporate": 6485, "\u03a4": 6486, "\u6bd2": 6487, "\u2581managers": 6488, "\u258168.": 6489, "\u2581Will": 6490, "\u258159": 6491, "ex": 6492, "ca": 6493, "/55/": 6494, "\u2581Hungary": 6495, "\u91cd\u590d": 6496, "\u2581Monday": 6497, "\u2581serving": 6498, "ST": 6499, "\u2581Ivoire": 6500, "\u2581\u5f88\u597d": 6501, "\u793e": 6502, "\u548c\u56fd\u9645": 6503, "\u2581disease": 6504, "\u2581Auditors": 6505, "\u2581character": 6506, "\u2581Operation": 6507, "\u2581pleased": 6508, "\u8bb8\u53ef\u8bc1": 6509, "\u5de5\u4f5c\u8ba1\u5212": 6510, "\u4e16\u7eaa": 6511, "\u2581Indeed": 6512, "\u5e15": 6513, "\u56fd\u9645\u4f1a\u8bae": 6514, "\u2581represents": 6515, "\u4ea4\u6362": 6516, "\u6536\u5230\u4e86": 6517, "\u56fd\u9645\u516c\u7ea6": 6518, "\u53c2\u8003": 6519, "\u8be5\u51b3\u8bae": 6520, "\u77ed\u671f": 6521, "\u2581Armenia": 6522, "\u5236\u4f5c": 6523, "\u2581peacebuilding": 6524, "\u2581interventions": 6525, "\u2581800": 6526, "\u2581\u4ed6\u8bf4": 6527, "\u2581overcome": 6528, "\u5fae": 6529, "\u5e38\u9a7b\u8054\u5408\u56fd\u4ee3\u8868": 6530, "\u2581Finance": 6531, "\u2581Mechanism": 6532, "\u2581!": 6533, "\u670d": 6534, "\u2581association": 6535, "\u2581transportation": 6536, "\u8499": 6537, "\u8d5e\u6210": 6538, "\u2581limits": 6539, "ut": 6540, "\u2581Nam": 6541, "\u2581Turkish": 6542, "ko": 6543, "\u6d88\u9664\u5bf9\u5987\u5973\u4e00\u5207\u5f62\u5f0f\u6b67\u89c6\u516c\u7ea6": 6544, "\u7528\u6765": 6545, "\u2581station": 6546, "\u5317": 6547, "\u8bb0\u8005": 6548, "\u2581\u54a8\u8be2\u59d4\u5458\u4f1a": 6549, "\u8bb0": 6550, "\u2581valuable": 6551, "\u2581notice": 6552, "\u60ef\u4f8b": 6553, "\u89c1\u7b2c": 6554, "\u7ef4\u6301\u548c\u5e73\u884c\u52a8\u90e8": 6555, "\u4e4d\u5f97": 6556, "\u2581asset": 6557, "\u91c7\u53d6\u7684": 6558, "\u507f\u8fd8": 6559, "\u8bbe\u60f3": 6560, "\u2581Reduction": 6561, "\u4e00\u56fd": 6562, "\u2581periods": 6563, "\u2581faith": 6564, "\u6821": 6565, "3%": 6566, "\u585e\u5c14\u7ef4\u4e9a": 6567, "\u53ec\u5f00\u7684": 6568, "\u4ee5\u52a0\u5f3a": 6569, "\u2581legally": 6570, "\u538b\u529b": 6571, "\u9f50": 6572, "\u2581released": 6573, "\u2581directed": 6574, "\u2581recommend": 6575, "Signed": 6576, "\u2581ideas": 6577, "\u544a\u8bc9": 6578, "\u2581invite": 6579, "\u786e\u7acb": 6580, "\u7279\u522b\u4ee3\u8868": 6581, "\u7ecf\u8425": 6582, "\u2581airspace": 6583, "\u4e0d\u5f97\u4e0d": 6584, "\u2581becoming": 6585, "\u2581Up": 6586, "\u96f6": 6587, "\u7684\u6bd4\u4f8b": 6588, "\u2581Kazakhstan": 6589, "\u2581suffered": 6590, "\u9000": 6591, "\u2581integrate": 6592, "\u2581sections": 6593, "\u8fd9\u4e9b\u63aa\u65bd": 6594, "\u2581welfare": 6595, "\u7537\u5b69": 6596, "\u2581\u7528": 6597, "\u7684\u6b67\u89c6": 6598, "\u76d1\u7763\u5385": 6599, "\u258169.": 6600, "\u529f\u80fd": 6601, "including": 6602, "\u613f": 6603, "\u6295": 6604, "\u2581reflects": 6605, "\u7684\u6761\u6b3e": 6606, "\u4e24\u6b21": 6607, "\u2581beautiful": 6608, "\u2581Mali": 6609, "\u83f2": 6610, "\u6700\u4f73\u505a\u6cd5": 6611, "\u7684\u5171\u540c": 6612, "\u2581prohibited": 6613, "\u540e\u8005": 6614, "\u2581object": 6615, "\u4ee5\u4fbf\u5728": 6616, "\u2581FAO": 6617, "\u67b6": 6618, "\u2581seem": 6619, "\u8eca": 6620, "\u4e4c": 6621, "\u5177\u5907": 6622, "\u2581expresses": 6623, "\u2581trained": 6624, "\u826f\u597d": 6625, "\\3": 6626, "\u2581complaint": 6627, "\u2581attempt": 6628, "\u6b64\u9879": 6629, "\u7ed3\u5a5a": 6630, "\u2581detained": 6631, "\u6709\u4ec0\u4e48": 6632, "\u2581Corr": 6633, "\u8fdd\u53cd\u4e86": 6634, "\u770b\u6cd5": 6635, "\u521a": 6636, "\u2581anniversary": 6637, "\u2581topics": 6638, "\u2581Team": 6639, "\u2581distributed": 6640, "\u7a46": 6641, "\u8005\u7684": 6642, "\u5f3a\u5316": 6643, "\u6613": 6644, "\u2581\u6211\u4eec\u8fd8": 6645, "\u2581voting": 6646, "\u5bb3": 6647, "\u2581ten": 6648, "\u6709\u65f6": 6649, "\u5404\u7c7b": 6650, "\u9053\u8def": 6651, "\u2581WTO": 6652, "\u5c31\u6b64": 6653, "\u628a\u4f60": 6654, "\u6709\u80fd\u529b": 6655, "\u7b49\u5f85": 6656, "\u591a\u4e2a": 6657, "\u2581firm": 6658, "\u544a\u8bc9\u6211": 6659, "\u2581Tunisia": 6660, "\u5728\u56fd\u5bb6": 6661, "\u2581acquisition": 6662, "\u2581\u8ba4\u8bc6\u5230": 6663, "\u524a\u51cf": 6664, "\u5f3a\u8c03\u6307\u51fa": 6665, "\u5728\u56fd\u5bb6\u4e00\u7ea7": 6666, "ies": 6667, "\u968f": 6668, "\u2581biological": 6669, "\u2581facts": 6670, "\u2581normal": 6671, "\u8d22\u52a1\u62a5\u8868": 6672, "\u7684\u4e8b\u60c5": 6673, "\u6b66\u88c5": 6674, "\u57fa\u51c6": 6675, "\u2581kid": 6676, "\u7ec4\u7ec7\u7684": 6677, "scale": 6678, "\u2581modern": 6679, ".18": 6680, "\u5f3a\u8feb": 6681, "\u76fe": 6682, "\u2581camps": 6683, "\u6b63\u4e49": 6684, "\u4ec0": 6685, "\u66f4\u5927\u7684": 6686, "\u88e1": 6687, "\u4f5c\u4e3a\u4e00\u4e2a": 6688, "discrimination": 6689, "\u2581Earth": 6690, "\u7684\u4fdd\u62a4": 6691, "\u7ed3\u5408": 6692, "\u4f55": 6693, "\u5c45": 6694, "line": 6695, "\u2581whatever": 6696, "\u8bbe\u7f6e": 6697, "\u2581undertaking": 6698, "\u2581neither": 6699, "State": 6700, "No": 6701, "\u67d0\u79cd": 6702, "\u2581\u8aaa": 6703, "\u5b98\u65b9\u53d1\u5c55\u63f4\u52a9": 6704, "\u4e1a\u7ee9": 6705, "\u6807": 6706, "\u8b66\u65b9": 6707, "\u7684\u7acb\u6cd5": 6708, "\u2581Slovenia": 6709, "\u6751": 6710, "?\"": 6711, "\u7684\u5f62\u5f0f": 6712, "\u4e00\u6761": 6713, "\u2581Consideration": 6714, "\u2581Observer": 6715, "\u2581explained": 6716, "\u548c\u652f\u6301": 6717, "\u7684\u5b9e\u65bd": 6718, "\u8981\u7d20": 6719, "\u2581Recommendation": 6720, "\u63d0\u4ea4\u4e86": 6721, "ursuant": 6722, "\u2581returned": 6723, "\u4e09\u5e74": 6724, "\u65af\u6d1b\u4f10\u514b": 6725, "\u571f": 6726, "\u2581appeals": 6727, "\u5f39": 6728, "\u4fe1\u8d37": 6729, "\u4e00\u4e2a\u4eba": 6730, "\u2581programming": 6731, "\u2581Adviser": 6732, "\u2581Process": 6733, "\u4e0d\u7b26\u5408": 6734, "\u4eca\u5e74": 6735, "\u2581UNOPS": 6736, "\u65c5\u6e38": 6737, "\u2581WHO": 6738, "\u2581\u80fd": 6739, "\u5317\u90e8": 6740, "\u5957": 6741, "\u7cae\u519c\u7ec4\u7ec7": 6742, "\u2581changing": 6743, "\u8425": 6744, "\u76d6": 6745, "\u6279": 6746, "\u2581trading": 6747, "\u2581map": 6748, "\u6709\u5bb3": 6749, "\u5e94\u7531": 6750, "being": 6751, "\u2581pension": 6752, "\u4f53\u80b2": 6753, "\u25812010.": 6754, "\u2581transnational": 6755, "\u2581version": 6756, "\u7684\u6982\u5ff5": 6757, "\u2581indicates": 6758, "You": 6759, "\u2581Armed": 6760, "\u7684\u7ec4\u7ec7": 6761, "\u2581bearing": 6762, "\u7b11": 6763, "\u25817,": 6764, "\u2581served": 6765, "\u8bd5\u9a8c": 6766, "\u258170.": 6767, "\u671f\u671b": 6768, "\u7a77\u4eba": 6769, "\u56de\u5e94": 6770, "\u2581insufficient": 6771, "\u2581waiting": 6772, "\u5355\u4e00": 6773, "\u2581authors": 6774, "\u544a\u8bc9\u4f60": 6775, "\u2581increases": 6776, "\u2581stuff": 6777, "\u4e34": 6778, "\u548c\u4fc3\u8fdb": 6779, "\u591a\u79cd": 6780, "land": 6781, "\u827e": 6782, "\u8054\u5408\u56fd\u5f00\u53d1\u8ba1\u5212\u7f72": 6783, "\u5361\u5854\u5c14": 6784, "\u53d1\u5c04": 6785, "\u2581Communications": 6786, "\u5148\u751f\u9601\u4e0b": 6787, "\u89c4\u7ea6": 6788, "if": 6789, "\u6700\u4f73": 6790, "\u2581advancement": 6791, "\u6050\u6016\u5206\u5b50": 6792, "ong": 6793, "\u2581cities": 6794, "\u2581preparations": 6795, "\u2581wished": 6796, "\u2581\u5728\u7b2c": 6797, "\u9884": 6798, "\u535a\u58eb": 6799, "\u2581forums": 6800, "\u2581kids": 6801, "\u2581Conventions": 6802, "\u807d": 6803, "com": 6804, "\u258171.": 6805, "\u6027\u548c": 6806, "op": 6807, "\u5f3a\u70c8": 6808, "\u5bf9\u4ed8": 6809, "\u2581bear": 6810, "\u5546\u5b9a\u7684": 6811, "\u5e76\u8bf7": 6812, "\u5c07": 6813, "\u5173\u95ed": 6814, "\u2581explain": 6815, "\u8be5\u9879\u76ee": 6816, "\u6bb5\u6240\u8ff0": 6817, "\u25816,": 6818, "\u2581Salvador": 6819, "(1": 6820, "\u2581largest": 6821, "wa": 6822, "\u7684\u63f4\u52a9": 6823, "\u2581fishing": 6824, "\u2581tourism": 6825, "\u2581Invites": 6826, "\u8be5\u9879": 6827, "\u2581Bulgaria": 6828, "mentioned": 6829, "\u982d": 6830, "\u7684\u7ed3\u8bba": 6831, "\u2581couple": 6832, "\u2581\u4f60\u53ef\u4ee5": 6833, "\u5fd9": 6834, "\u2581Provisional": 6835, "\u6ca1\u6536": 6836, "\u2581Science": 6837, "\u54ea": 6838, "\u5bf9\u5f85": 6839, "\u5171\u8bc6": 6840, "\u2581minute": 6841, "\u5c4a\u4f1a\u8bae": 6842, "\u8fd8\u8981": 6843, "\u505c": 6844, "\u989d\u5916": 6845, "\u2581lasting": 6846, "\u8be5\u51b3\u8bae\u8349\u6848": 6847, "\u7537": 6848, "\u2581inventory": 6849, "\u72ec\u7acb\u7684": 6850, "\u2581deployed": 6851, "\u7f14\u7ea6\u65b9\u5927\u4f1a": 6852, "\u5217\u51fa": 6853, "ow": 6854, "\u2581structural": 6855, "\u2581intellectual": 6856, "\u80cc\u666f": 6857, "\u6210\u5c31": 6858, "\u63d0\u4f9b\u5173\u4e8e": 6859, "\u2581multiple": 6860, "\u7684\u5730\u4f4d": 6861, "\u8ba1\u7b97\u673a": 6862, "\u6e20\u9053": 6863, "\u2581satellite": 6864, ".13": 6865, "\u2581UNCITRAL": 6866, "\u5987\u5973\u548c\u513f\u7ae5": 6867, "\u8f6c\u9012": 6868, "con": 6869, "\u2581(3)": 6870, "\u2581requesting": 6871, "\u9632": 6872, "=": 6873, "\u2581Trafficking": 6874, "\u7834": 6875, "\u2581adopting": 6876, "\u2581demands": 6877, "Terrorism": 6878, "\u5229\u76ca\u6538\u5173\u65b9": 6879, "/61/": 6880, "\u2581demobilization": 6881, "\u7f3a\u5c11": 6882, "\u2581supposed": 6883, "\u2581\u6211\u5c31": 6884, "\u505a\u7684": 6885, "\u7a81\u51fa": 6886, "\u2581severe": 6887, "\u2581north": 6888, "\u7279\u5f81": 6889, "\u8fd8\u5e94": 6890, "\u2581transmit": 6891, "\u8db3\u591f": 6892, "\u2581\u6211\u4e0d": 6893, "\u6708\u4efd": 6894, "\u62c9\u4e01\u7f8e\u6d32": 6895, "\u4f01\u56fe": 6896, "\u2581\u5b83\u8fd8": 6897, "\u2581board": 6898, "\u662f\u6307": 6899, "\u2581reiterates": 6900, "\u2581accession": 6901, "\u2581Main": 6902, "\u6d41\u79bb\u5931\u6240": 6903, "\u9003": 6904, "\u9ad8\u7ea7\u4e13\u5458": 6905, "\u2581Guidelines": 6906, "\u2581federal": 6907, "\u9047\u5230": 6908, "4%": 6909, "/66/": 6910, "In": 6911, "\u2581British": 6912, "\u58eb\u5175": 6913, "\u5728\u6240\u6709": 6914, "\u2581nation": 6915, "\u4e01": 6916, "\u2581\u540c": 6917, "\u2581largely": 6918, "\u8349": 6919, "\u4fc3\u8fdb\u53d1\u5c55": 6920, "\u2581book": 6921, "ud": 6922, "\u7684\u673a\u5236": 6923, "\u5de5\u4f5c\u5730\u70b9": 6924, "\u62cd": 6925, "ES": 6926, "\u90e8\u961f\u6d3e\u9063\u56fd": 6927, "\u4e27\u5931": 6928, "\u5c3c\u52a0\u62c9\u74dc": 6929, "\u2581\u63d0\u4ea4\u4eba": 6930, "\u59d4\u5458\u4f1a\u7684": 6931, "\u2581Z": 6932, "\u5987\u5973\u7684": 6933, "/2004/": 6934, "\u2581sleep": 6935, "ja": 6936, "\u2581crazy": 6937, "\u4e4b\u95f4\u7684\u5173\u7cfb": 6938, "\u63d0\u9ad8\u5987\u5973\u5730\u4f4d": 6939, "\u2581Defence": 6940, "GC": 6941, "\u2581locations": 6942, "\u96c5": 6943, "\u8be5\u56fd\u653f\u5e9c": 6944, "\u2581middle": 6945, "\u2581premises": 6946, "\u2581liberty": 6947, "\u6982\u8ff0": 6948, "\u4e1d": 6949, "\u7167\u6599": 6950, "/57/": 6951, "150": 6952, "\u5757": 6953, "\u673a\u6784\u548c": 6954, "\u7121": 6955, "\u2581belonging": 6956, "-20": 6957, "\u2581master": 6958, "\u258166": 6959, "\u2581borders": 6960, "\u2581built": 6961, "\u2581urge": 6962, "\u2581\u6211\u53ea\u662f": 6963, "\u82f1\u6587": 6964, "\u2581Page": 6965, "\u653f\u5e9c\u95f4\u7ec4\u7ec7": 6966, "\u2581700": 6967, "\u2581Macedonia": 6968, "\u2581himself": 6969, "\u8bfb": 6970, "\u670d\u52a1\u7684": 6971, "\u88c1\u8c08\u4f1a": 6972, "\u51b3\u5b9a\u8349\u6848": 6973, "\u7684\u5371\u9669": 6974, "\u2581signature": 6975, "\u5eb7\u590d": 6976, "Sub": 6977, "\u9a6c\u8033\u4ed6": 6978, "\u98de\u884c": 6979, "\u5e76\u4e0e": 6980, "\u2581maternal": 6981, "\u4e2a\u522b": 6982, "\u2581conclude": 6983, "\u2581sixth": 6984, "\u2581counsel": 6985, "\u2581disposal": 6986, "\u897f\u975e": 6987, "Bissau": 6988, "\u2581John": 6989, "\u2581orders": 6990, "\u2581representing": 6991, "\u2581Bolivia": 6992, "\u5356\u6deb": 6993, "\u2581widespread": 6994, "\u63d0\u4f9b\u8d44\u91d1": 6995, "\u80e1": 6996, "\u5f3a\u8c03\u4e86": 6997, "\u62e8\u6b3e": 6998, "\u6761\u7ea6\u673a\u6784": 6999, "\u2581ma": 7000, "\u4f4d\u4e8e": 7001, "\u2581\u6587\u4ef6": 7002, "\u2581commit": 7003, "\u9019\u6a23": 7004, "\u2581introduce": 7005, "\u2581crises": 7006, "\u5373\u4f7f": 7007, "\u2581\u90a3\u4f60": 7008, "\u8d1f": 7009, "gu": 7010, "\u8fd9\u79cd\u60c5\u51b5": 7011, "\u51e0\u5185\u4e9a": 7012, "\u5f53\u4e8b\u65b9": 7013, "care": 7014, "\u6559\u6388": 7015, "\u2581copy": 7016, "\u2581Acting": 7017, "\u2581decides": 7018, "\u4e5f\u53ef\u4ee5": 7019, "\u2581substance": 7020, "\u2581cluster": 7021, "\u591c": 7022, "\u2581\u4e5f\u8bb8": 7023, "\u2581NGO": 7024, "\u5a01": 7025, "\u59b3": 7026, "\u2581conducting": 7027, "\u628a\u5b83": 7028, "\u6536\u76ca": 7029, "\u2581male": 7030, "\u2581extradition": 7031, "\u2581terrorists": 7032, "\u6838\u53ef": 7033, "\u4e2a\u5458\u989d": 7034, "\u8bae\u5458": 7035, "\u2581Developed": 7036, "04": 7037, "\u2581sponsors": 7038, "\u2581(1": 7039, "\u2581managed": 7040, "\u2581ministerial": 7041, "\u4f5c\u51fa\u8d21\u732e": 7042, "\u51e0\u5185\u4e9a\u6bd4\u7ecd": 7043, "\u2581Heads": 7044, "\u5feb\u901f": 7045, "\u2581extremely": 7046, "\u7684\u8c08\u5224": 7047, "\u5728\u8fd9": 7048, "\u2581dis": 7049, "\u2581Chad": 7050, "\u258162": 7051, "\u2581missing": 7052, "\u8c22": 7053, "\u4f7f\u7528\u7684": 7054, "\u6548\u679c": 7055, "\u526f\u79d8\u4e66\u957f": 7056, "\u2581secured": 7057, "\u878d\u5165": 7058, "\u6536\u5230\u7684": 7059, "\u2581aggression": 7060, "\u2581tenth": 7061, "\u2581accessible": 7062, "\u2581learn": 7063, "\u65bc": 7064, "\u8f6f\u4ef6": 7065, "\u2581consolidated": 7066, "\u2581k": 7067, "\u79fb\u4ea4": 7068, "\u25811999.": 7069, "ating": 7070, "ya": 7071, "\u6bcf\u6708": 7072, "\u6743\u5229\u7684": 7073, "\u5e95": 7074, "\u2581homes": 7075, "\u2581hurt": 7076, "\u6027\u522b\u95ee\u9898": 7077, "\u2581Mom": 7078, "-6": 7079, "\u2581outreach": 7080, "\u611f\u89c9": 7081, "\u52a0\u4e0a": 7082, "\u258172.": 7083, "\u2581devoted": 7084, "\u2581Assessment": 7085, "\u8d38\u6613\u6cd5\u59d4\u5458\u4f1a": 7086, "\u2581degradation": 7087, "/54/": 7088, "\u51c0\u989d": 7089, "\u2581\u6211\u53ef\u4ee5": 7090, "/2000/": 7091, "\u8fc4\u4eca": 7092, "\u2581drink": 7093, "\u4fdd\u52a0\u5229\u4e9a": 7094, "\u2581Sixty": 7095, "\u2581Guide": 7096, "\u2581Con": 7097, "\u2581simply": 7098, "\u53c2\u7167": 7099, "\u884c\u653f\u5f53\u5c40": 7100, "\u2581\u6b27\u6d32\u8054\u76df": 7101, "\u5907": 7102, "\u7537\u5973\u5e73\u7b49": 7103, "\u2581utilization": 7104, "\u2581difference": 7105, "\u2581decade": 7106, "\u2581considerations": 7107, "\u2581variety": 7108, "\u6574": 7109, ".17": 7110, "less": 7111, "\u671f\u9650": 7112, "\u8499\u53e4": 7113, "ni": 7114, "\u7684\u8fdb\u7a0b": 7115, "CEDAW": 7116, "\u258167": 7117, "\u2581Statement": 7118, "\u8ddf\u8e2a": 7119, "2%": 7120, "\u4e13\u5bb6\u4f1a\u8bae": 7121, "\u75db\u82e6": 7122, "\u2581employed": 7123, "\u7684\u5a01\u80c1": 7124, "\u2581Document": 7125, "\u6267\u884c\u59d4\u5458\u4f1a": 7126, "\u7528\u54c1": 7127, "\u2581acknowledged": 7128, "cHFFFFFF": 7129, "\u7684\u4e00\u79cd": 7130, "\u2581remote": 7131, "\u4ea7\u751f\u4e86": 7132, "\u7684\u6570\u91cf": 7133, "\u2581barriers": 7134, "\u2581wider": 7135, "\u2581huh": 7136, "\u906d": 7137, "\u2581looked": 7138, "\u2581Roma": 7139, "ina": 7140, "\u2581\u9996\u5148": 7141, "/2006/": 7142, "\u5438\u5f15": 7143, "\u2581hospital": 7144, "\u4e8b\u6545": 7145, "\u2581prohibition": 7146, "\u9644\u5c5e\u673a\u6784": 7147, "\u7684\u4f7f\u7528": 7148, "\u4fe1\u4efb": 7149, "\u2581Faso": 7150, "\u2581UNRWA": 7151, "\u2581showed": 7152, "\u258173.": 7153, "\u2581xenophobia": 7154, "\u2581savings": 7155, "\u4e0d\u8bba": 7156, "\u5e03\u57fa\u7eb3\u6cd5\u7d22": 7157, "\u2581League": 7158, "\u2581Procedure": 7159, "\u811a": 7160, "\u6269\u6563": 7161, "\u5f17": 7162, "\u25812006-2007": 7163, "\u2581afraid": 7164, "\u2581army": 7165, "CRC": 7166, "\u2581discriminatory": 7167, "\u4e00\u4f53\u5316": 7168, "\u2581List": 7169, "\u4e3a\u6267\u884c": 7170, "\u2581recognizing": 7171, "\u786e\u5b9a\u4e86": 7172, "\u2581promoted": 7173, "\u2581born": 7174, "\u5206\u949f": 7175, "\u2581starting": 7176, "\u62a5\u544a\u7684": 7177, "\u8b66": 7178, "\u738b": 7179, "\u81ea\u52a8": 7180, "\u2581experienced": 7181, "\u660e\u767d": 7182, "\u2581advanced": 7183, "/2005/": 7184, "\u6000\u5b55": 7185, "\u2581charged": 7186, "\u2581Uruguay": 7187, "\u5316\u5b66": 7188, "\u884c\u4e8b": 7189, "\u63a8\u884c": 7190, "\u2581\u4ed6\u662f": 7191, "\u672c\u5c4a\u4f1a\u8bae": 7192, "\u7684\u6307\u63a7": 7193, "\u2581Montenegro": 7194, "\u2581appears": 7195, "\u6c11\u4e8b": 7196, "\u4fdd\u5b58": 7197, "\u2581\u5225": 7198, "\u8ba4\u5b9a": 7199, "\u2581hearing": 7200, "ig": 7201, "(2005": 7202, "01": 7203, "\u2581warning": 7204, "\u73bb\u5229\u7ef4\u4e9a": 7205, "\u5176\u4f59": 7206, "\u2581game": 7207, "\u5931\u8e2a": 7208, "\u2581Island": 7209, "\u2581inadequate": 7210, "300": 7211, "\u7acb\u9676\u5b9b": 7212, "\u2581strength": 7213, "\u2581\u4e2d\u56fd": 7214, "\u9886\u53d6": 7215, "\u63a8\u8fdf": 7216, "\u2581reality": 7217, "\u2581adjustment": 7218, "\u7b49\u7b49": 7219, "\u2581fisheries": 7220, "\u5f53\u9009": 7221, "\u5bf9\u8fd9\u4e9b": 7222, "\u8bf4\u8bdd": 7223, "\u2581relatively": 7224, "8%": 7225, "\u2581format": 7226, "\u2581shot": 7227, "\u2581Libyan": 7228, "\u2581sit": 7229, "\u2581Environmental": 7230, "\u77ed": 7231, "\u2581Head": 7232, "\u5c04": 7233, "\u2581dad": 7234, "\u2581w": 7235, "\u7ec4\u7ec7\u548c": 7236, "\u4e00\u5929": 7237, "\u2581passed": 7238, "\u2581adverse": 7239, "\u6559\u5b66": 7240, "\u7279\u8bbe\u59d4\u5458\u4f1a": 7241, "\u2581proceed": 7242, "ING": 7243, "\u2581Doha": 7244, "\u2581integral": 7245, "\u6301\u6709": 7246, "\u2581outputs": 7247, "\u4f8b\u5916": 7248, "SP": 7249, "\u662f\u5bf9": 7250, "\u4e3a\u5176": 7251, "\u2581remedy": 7252, "AL": 7253, "\u8863": 7254, "sharing": 7255, "ev": 7256, "\u2581Treatment": 7257, "\u2581gives": 7258, "\u8865\u6551": 7259, "\u7fa4": 7260, "\u2581daughter": 7261, "\u5956": 7262, "\u2581Mauritius": 7263, "\u2581\u59d4\u5458\u4f1a\u5efa\u8bae\u7f14\u7ea6\u56fd": 7264, "\u739b": 7265, "\u6863\u6848": 7266, "\u5b98\u65b9": 7267, "\u2581watch": 7268, "\u548c\u89e3": 7269, "\u8be5\u65b9\u6848": 7270, "\u6211\u56fd\u4ee3\u8868\u56e2": 7271, "\u4e5f\u8bb8": 7272, "\u2581conservation": 7273, "\u724c": 7274, "\u9084": 7275, "\u51e1": 7276, "\u2581Cameroon": 7277, "\u2581Transitional": 7278, "\u4e3e\u529e\u7684": 7279, "\u652f": 7280, "\u2581stable": 7281, "\u534f\u8c03\u548c": 7282, "\u2581Cross": 7283, "\u2581Fuck": 7284, "\u2581add": 7285, "\u9020": 7286, "\u2581Employment": 7287, "AP": 7288, "03": 7289, "\u5401\u8bf7": 7290, "\u2581ministries": 7291, "\u6cd5\u5f8b\u89c4\u5b9a": 7292, "\u8ffd": 7293, "\u85cf": 7294, "ated": 7295, "\u2581disabled": 7296, "\u2581usually": 7297, "\u4fb5\u7565": 7298, "\u2581sets": 7299, "\u2581explanation": 7300, "\u5e74\u5ea6\u62a5\u544a": 7301, "\u2581explore": 7302, "\u8fd8\u6ca1\u6709": 7303, "ek": 7304, "\u2581Both": 7305, ":\u201c": 7306, "\u6c83": 7307, "\u57f9\u8bad\u65b9\u6848": 7308, "\u4e13\u5bb6\u5c0f\u7ec4": 7309, "contributing": 7310, "\u76f4\u5230": 7311, "\u2581mid": 7312, "\u7684\u624b\u6bb5": 7313, "\u56fd\u5185\u6cd5": 7314, "\u5f62\u52bf": 7315, "\u7d27\u5f20": 7316, "\u2581allowance": 7317, "\u4ed6\u4eba": 7318, "\u2581balanced": 7319, "\u2581insolvency": 7320, "\u7cae\u98df\u5b89\u5168": 7321, "\u2581Excuse": 7322, "\u2581functional": 7323, "\u540e\u6765": 7324, "\u2581Lithuania": 7325, "\u914d": 7326, "\u2581formed": 7327, "\u2581organize": 7328, "\u697c": 7329, "\u56fd\u5bb6\u673a\u6784": 7330, "\u8be5\u5730\u533a": 7331, "\u8d22\u653f\u8d44\u6e90": 7332, "\u2581biennial": 7333, "\u4fee": 7334, "\u2581Three": 7335, "\u2581fixed": 7336, "\u2581standing": 7337, "\u2581#": 7338, "\u5362": 7339, "\u2581schedule": 7340, "VI": 7341, "\u519c": 7342, "\u59d4\u5185\u745e\u62c9": 7343, "\u6240\u8f7d\u7684": 7344, "\u2581Un": 7345, "\u2581danger": 7346, "\u73b0\u5df2": 7347, "\u7ec4\u6210\u90e8\u5206": 7348, "\u5b58\u5728\u7740": 7349, "9%": 7350, "cHFF": 7351, "ncreased": 7352, "/64/": 7353, "\u2581Anti": 7354, "\u5357\u90e8": 7355, "\u5c06\u662f": 7356, "\u6728": 7357, "\u6050\u6016": 7358, "\u522b\u4eba": 7359, "\u2581\u8d38\u53d1\u4f1a\u8bae": 7360, "\u2581salary": 7361, "\u5e72\u561b": 7362, "\u2581Ghana": 7363, "\u2581\u7b2c\u4e8c": 7364, "\u65bd": 7365, "ass": 7366, "\u51c0": 7367, "\u2581Poverty": 7368, "\u2581Decision": 7369, "\u7b2c\u4e00\u4e2a": 7370, "\u89c1\u9644\u4ef6": 7371, "\u2581resident": 7372, "\u2581online": 7373, "\u7b80\u5316": 7374, "\u51cf\u8d2b": 7375, "\ue5e6": 7376, "\u5144\u5f1f": 7377, "\u2581Singapore": 7378, "\u2581Thursday": 7379, "\u65b9\u6848\u548c": 7380, "\u5b83\u7684": 7381, "\u9644\u4ef6\u4e00": 7382, "bord": 7383, "\u6761\u6587": 7384, "\u7740\u91cd": 7385, "\u5230\u5e95": 7386, "\u53f7\u548c": 7387, "\u65b9\u6848\u9884\u7b97": 7388, "\u662f\u6211": 7389, "\u5ba2": 7390, "\u5904\u7f6e": 7391, "\u62d6\u5ef6": 7392, "\u6ce8": 7393, "\u2581ain": 7394, "\u5176\u4ed6\u4eba": 7395, "\u2581protocol": 7396, "\u8fd9\u4e9b\u4eba": 7397, "\u56e0\u4e3a\u5b83": 7398, "\u8857": 7399, "\u2581south": 7400, "\u2581Reports": 7401, "\u64cd\u4f5c": 7402, "\u53ef\u80fd\u662f": 7403, "\u2581\u6709\u4e9b": 7404, "/63/": 7405, "\u2581exactly": 7406, "\u25811373": 7407, "\u53d1\u751f\u4e86": 7408, "\u5c11\u6570": 7409, "\u7684\u9884\u7b97": 7410, "\u671d": 7411, "\u2581\u4ec0\u9ebc": 7412, "\u53d8\u9769": 7413, "\u4e0b\u53bb": 7414, "\u56fd\u9645\u5211\u4e8b\u6cd5\u9662": 7415, "\u7269\u8d44": 7416, "\u57f9\u8bad\u548c": 7417, "\u2581worth": 7418, "\u672c\u516c\u7ea6": 7419, "\u2581exception": 7420, "\u52a0\u5f3a\u8054\u5408\u56fd": 7421, "\u2581gun": 7422, "\u2581\u554a": 7423, "\u2581Nevertheless": 7424, "\u5e38\u9a7b\u4ee3\u8868\u56e2": 7425, "\u2581running": 7426, "\u2581CD": 7427, "ish": 7428, "\u2581composition": 7429, "\u5728\u54ea\u91cc": 7430, "\u6ce8\u518c": 7431, "\u2581finding": 7432, "\u65e0\u8bba": 7433, "\u2581equity": 7434, "\u25812008-2009": 7435, "\u5916\u5c42\u7a7a\u95f4": 7436, "\u2581command": 7437, "\u7238\u7238": 7438, "\u2581\u60f3": 7439, "\u51b7": 7440, "\u6740\u5bb3": 7441, "income": 7442, "\u2581Organized": 7443, "\u258174.": 7444, "\u2581genuine": 7445, "\u533a\u522b": 7446, "\u51fa\u73b0\u4e86": 7447, "\u2581displacement": 7448, "\u2581Water": 7449, "\u673a\u573a": 7450, "\u8054\u521a\u7279\u6d3e\u56e2": 7451, "06": 7452, "lu": 7453, "\u7684\u534f\u8c03": 7454, "\u2581Arms": 7455, "\u7684\u804c\u8d23": 7456, "\u2581Least": 7457, "\u6d4b\u8bd5": 7458, "\u7231\u6c99\u5c3c\u4e9a": 7459, "\u5f02": 7460, "\u2581southern": 7461, "\u2581administering": 7462, "\u2581duration": 7463, "\u4e3e\u884c\u4f1a\u8bae": 7464, "\u548c\u6709\u5173": 7465, "\u2581$1": 7466, "\u88c5\u5907": 7467, "\u2581rose": 7468, "\u2581reply": 7469, "\u2581dedicated": 7470, "\u6d17": 7471, "\u7684\u89c2\u70b9": 7472, "\u987a\u5229": 7473, "\u2581\u4eba\u4eec": 7474, "\u2581occupying": 7475, "\u8fdb\u6765": 7476, "\u2581replace": 7477, "\u2581seeks": 7478, "\u6851": 7479, "\u95ee\u8d23\u5236": 7480, "\u7136": 7481, "\u505a\u4ec0\u4e48": 7482, "\u5987\u5973\u548c\u5973\u5b69": 7483, "\u5f88\u5c11": 7484, "\u2581procedural": 7485, "02": 7486, "\u25819,": 7487, "\u8a72": 7488, "\u2581killing": 7489, "\u8fdb\u884c\u5408\u4f5c": 7490, "\u4e8b\u4e1a": 7491, "\u56fe\u4e66\u9986": 7492, "\u2581zones": 7493, "\u7b2c\u4e94": 7494, "\u2581claimed": 7495, "\u2581doubt": 7496, "\u2581fun": 7497, "\u63d0\u4f9b\u670d\u52a1": 7498, "\u2581mitigation": 7499, "\u8fd9\u9879\u5de5\u4f5c": 7500, ".14": 7501, "\u5c4a\u4f1a": 7502, "\u5168\u4f53": 7503, "\u5225": 7504, "\u6b27\u5143": 7505, "\u2581adequately": 7506, "\u56fd\u96c6\u56e2": 7507, "\u5916\u56fd\u76f4\u63a5\u6295\u8d44": 7508, ":1": 7509, "\u793e\u4f1a\u548c\u6587\u5316\u6743\u5229": 7510, "\u5b88": 7511, "\u6c38\u8fdc": 7512, "\u652f\u63f4": 7513, "\u603b\u5e72\u4e8b": 7514, "\u79d8\u4e66\u957f\u7684\u62a5\u544a": 7515, "\u79c1\u8425": 7516, "\u4f1a\u8bae\u7684": 7517, "\u258176.": 7518, "\u4fb5\u72af\u4eba\u6743": 7519, "bo": 7520, "\u521a\u521a": 7521, "\u4e16\u754c\u4eba\u6743\u5ba3\u8a00": 7522, "\u513f\u7ae5\u7684": 7523, "\u2581operate": 7524, "\u2581decline": 7525, "\u2581intervention": 7526, "\u548c\u6211": 7527, "\u5c31\u80fd": 7528, "\u8fdb\u4e00\u6b65\u52a0\u5f3a": 7529, "\u2581\u53ea\u8981": 7530, "\u2581thousands": 7531, "\u5362\u68ee\u5821": 7532, "/5": 7533, "\u2581performed": 7534, "\u5916\u4ea4\u90e8": 7535, "\u2581rejected": 7536, "\u63a5\u8fd1": 7537, "\u7684\u6709\u6548": 7538, "\u2581Burkina": 7539, "\u258175.": 7540, "120": 7541, "\ue145": 7542, "\u5c31\u53ef\u4ee5": 7543, "\u2581sides": 7544, "\u597d\u7684": 7545, "\u2581Yugoslav": 7546, "\u2581\u7238\u7238": 7547, "\u2581\u8fd9\u91cc": 7548, "\u2581Today": 7549, "(2006": 7550, "\u653f": 7551, "\u548c\u56fd\u5bb6": 7552, "\u25811996,": 7553, "\u5de5\u7a0b\u5904": 7554, "\u2581Annual": 7555, "\u2581\u79d8\u4e66\u957f\u7684\u62a5\u544a": 7556, "\u6770": 7557, "ga": 7558, "\u2581art": 7559, "\u5e74\u524d": 7560, "\u6b4c": 7561, "\u2581Terrorism": 7562, "\u89c4\u7ae0": 7563, "\u7684\u8054\u5408\u56fd": 7564, "\u6297": 7565, "\u7684\u58f0\u660e": 7566, "\u2581Saint": 7567, "\u2581Local": 7568, "\u7cfb\u7edf\u7684": 7569, "\u597d\u5417": 7570, "\u6682\u65f6": 7571, "\u62c9\u8131\u7ef4\u4e9a": 7572, "\u4e71": 7573, "\u2581reviewing": 7574, "\u7b2c\u4e94\u59d4\u5458\u4f1a": 7575, "\u2581voice": 7576, "\u2581custody": 7577, "\u663e\u8457": 7578, "\u636e\u79f0": 7579, "\u6709\u5173\u7684\u95ee\u9898": 7580, "\u8f7b": 7581, "\u94bb\u77f3": 7582, "\u2581promise": 7583, "\u51fa\u4e8e": 7584, "\u2581\u4e0e\u6b64\u540c\u65f6": 7585, "\u2581continuous": 7586, "\u6d77\u4e0a": 7587, "\u65b0\u52a0\u5761": 7588, "\u6f14": 7589, "\u2581nearly": 7590, "\u2581Through": 7591, "\u7684\u7ecf\u8d39": 7592, "\u2581\u592a": 7593, "\u6027\u5265\u524a": 7594, "\u2581facility": 7595, "\u56e0\u7279\u7f51": 7596, "\u590d": 7597, "\u2581heavy": 7598, "\u2581requiring": 7599, "\u65b9\u9762\u7684\u4f5c\u7528": 7600, "\u7559\u4e0b": 7601, "\u5206\u533a\u57df": 7602, "\u2581Prohibition": 7603, "\u2581Protocols": 7604, "\u8d1f\u503a": 7605, "\u4fdd\u62a4\u548c": 7606, "\u79d1\u6280": 7607, "\u4ed6\u5728": 7608, "\u6218\u7565\u8ba1\u5212": 7609, "\u2581monthly": 7610, "\u4eba\u5c45\u7f72": 7611, "\u8fdb\u5c55\u60c5\u51b5": 7612, "\u4f8b": 7613, "\u2581accountable": 7614, "\u4e16\u754c\u4e0a": 7615, "\u7684\u552f\u4e00": 7616, "\u2581Viet": 7617, "\u4e8b\u5b9e\u4e0a": 7618, "\u671f\u5f85": 7619, "\u770b\u6765": 7620, "\u77e5\u8bc6\u4ea7\u6743": 7621, "\u2581occasion": 7622, "\u2581\u65b0": 7623, "\u4efb\u804c": 7624, "\u2581fish": 7625, "\u7f13\u89e3": 7626, "\u5f20": 7627, "\u6d17\u94b1": 7628, "\u7684\u67d0\u4e9b": 7629, "\u88c1\u5b9a": 7630, "\u73b0\u4ee3": 7631, "\u59d4\u5458\u4f1a\u5728": 7632, "\u2581adjustments": 7633, "\u8eab\u4f53": 7634, "\u258114,": 7635, "\u89e3\u9664": 7636, "\u514b\u65af": 7637, "1988": 7638, "\u2581\u975e\u6d32": 7639, "\u5bb9\u5fcd": 7640, "\u5265\u524a": 7641, "\u7684\u7a0b\u5ea6": 7642, "\u2581treated": 7643, "\u6b21\u5168\u4f53\u4f1a\u8bae": 7644, "\u611f\u67d3": 7645, "\u7ed1\u67b6": 7646, "\u6bdb": 7647, "\u2581negotiation": 7648, "\u753b": 7649, "\u2581meant": 7650, "\u2581execution": 7651, "\u65b9\u9488": 7652, "\u6b3e\u9879": 7653, "\u7279\u70b9": 7654, "\u2581visited": 7655, "\u56fd\u9645\u52b3\u5de5\u7ec4\u7ec7": 7656, "\u2581Contents": 7657, "\u2581determining": 7658, "\u2581\u65e5\u672c": 7659, "\u2581Constitutional": 7660, "\u7ecf\u8d39\u7684\u7b79\u63aa": 7661, "\u644a\u6b3e": 7662, "\u5b58\u5728\u7684": 7663, "\u2581Moldova": 7664, "\u767b\u8bb0\u518c": 7665, "\u52a8\u5458": 7666, "\u8106\u5f31": 7667, "\u2581greatest": 7668, "\u898b": 7669, "\u2581exclusion": 7670, "\u2581financed": 7671, "\u5305\u62ec\u901a\u8fc7": 7672, "\u5c06\u7531": 7673, "\u7684\u5fc5\u8981\u6027": 7674, "\u2581vocational": 7675, "\u2581\u6211\u6709": 7676, "\u5e76\u4e0d\u662f": 7677, "\u62df\u8bae\u7684": 7678, "......": 7679, "\u7248": 7680, "\u9063\u8fd4": 7681, "\u2581Jamaica": 7682, "Proliferation": 7683, "\u2581con": 7684, "\u57fa\u5730": 7685, "\u521b\u5efa": 7686, "\u51fb": 7687, "\u4fe1\u4ef0": 7688, "\u5987\u5973\u6743\u5229": 7689, "\u2581Welcoming": 7690, "\u4e5f\u95e8": 7691, "\u90e8\u957f\u7ea7\u4f1a\u8bae": 7692, "\u2581reaching": 7693, "\u5bfc\u5f39": 7694, "\u793a\u8303\u6cd5": 7695, "/60/": 7696, "\u516c\u6c11\u6743\u5229\u548c\u653f\u6cbb\u6743\u5229\u56fd\u9645\u516c\u7ea6": 7697, "\u9644\u8fd1": 7698, "\u2581opposition": 7699, "\u6bdb\u91cc\u6c42\u65af": 7700, "\u5f7c\u6b64": 7701, "\u533a\u5206": 7702, "\u2581Delegations": 7703, "\u6cf0": 7704, "Self": 7705, "\u603b\u7ed3": 7706, "\u6709\u4e86": 7707, "\u8d28": 7708, "\u2581Youth": 7709, "\u6234": 7710, "\u2581pertaining": 7711, "\u53f7\u51b3\u8bae\u548c": 7712, "\u6cd5\u5b9a": 7713, "\u574f": 7714, "\u5de5\u4f5c\u4e2d": 7715, "\u4e08\u592b": 7716, "\u2581\u5f88": 7717, "\u2581transfers": 7718, "\u5370": 7719, "\u4e3a\u4f55": 7720, "\u8d29\u8fd0\u4eba\u53e3": 7721, "\u66f4\u5927": 7722, "\u2581covers": 7723, "ted": 7724, "\u548c\u975e": 7725, "ner": 7726, "\u6c38\u4e45": 7727, "\u2581import": 7728, "\u2581flow": 7729, "\u2581formulated": 7730, "\u4fc3\u8bf7": 7731, "\u4fa7\u91cd\u4e8e": 7732, "\u51b0\u5c9b": 7733, "\u5355\u65b9\u9762": 7734, "\u2581(2001)": 7735, "\u5b83\u4eec\u7684": 7736, "\u2581commended": 7737, "\u57f9\u8bad\u73ed": 7738, "\u4e00\u65e6": 7739, "\u2581equally": 7740, "\u2581page": 7741, "\u2581Election": 7742, "\u7684\u8054\u7cfb": 7743, "\u516c\u52a1\u5458": 7744, "\u900f\u660e\u5ea6": 7745, "\u7684\u8bb8\u591a": 7746, "men": 7747, "Governing": 7748, "\u5f00\u4f1a": 7749, "\u4e1a\u52a1\u6d3b\u52a8": 7750, "\u2581path": 7751, "\u2581ammunition": 7752, "\u2581900": 7753, "\u2581Tuesday": 7754, "\u2581choose": 7755, "\u63d0\u4f9b\u652f\u6301": 7756, "\u56fd\u5bb6\u548c\u56fd\u9645": 7757, "\u4e0b\u8ff0": 7758, "\u6240\u505a\u7684": 7759, "\u9020\u6210\u4e86": 7760, "\u2581Reaffirms": 7761, "\u2581stress": 7762, "\u2581consolidation": 7763, "\u2581finds": 7764, "\u2581deaths": 7765, "\u2581generation": 7766, "\u914d\u5408": 7767, "\u4fe1\u901a\u6280\u672f": 7768, "\u2581Wednesday": 7769, "\u72ec\u7acb\u4e13\u5bb6": 7770, "\u2581walk": 7771, "\u2581hate": 7772, "\u8fd0\u884c": 7773, "\u8207": 7774, "\u53d8\u6210": 7775, "\u2581lose": 7776, "\u5987\u5973\u548c\u5973\u7ae5": 7777, "\u90fd\u5728": 7778, "\u610f\u4e49": 7779, "\u66f4\u6b63": 7780, "\u4e00\u6a23": 7781, "\u5de8\u5927": 7782, "\u2581detainees": 7783, "\u2581decades": 7784, "\u2581objection": 7785, "\u8054\u5408\u56fd\u79d8\u4e66\u957f": 7786, "\u8fb9\u5883": 7787, "\u2581demonstrate": 7788, "\u6240\u9700\u7ecf\u8d39": 7789, "\u7b7e\u7f72\u4e86": 7790, "\u4ea4\u901a": 7791, "\u2581Miss": 7792, "\u2581picture": 7793, "\u6587\u5316\u548c": 7794, "\u25812004-2005": 7795, "\u2581Statements": 7796, "\u65b9\u4fbf": 7797, "/2003/": 7798, "\u8f6c\u4ea4": 7799, "\u2581revision": 7800, "\u65b9\u6848\u7684": 7801, "\u7684\u957f\u671f": 7802, "\u7b49\u95ee\u9898": 7803, "\u2581movements": 7804, "\u8bf4\u4ec0\u4e48": 7805, "\u5220\u9664": 7806, "\u2581vol": 7807, "\u8bc1\u4e66": 7808, "po": 7809, "\u4e24\u9879": 7810, "\u5df4\u62ff\u9a6c": 7811, "\u25812011.": 7812, "\u6240\u9700\u8d44\u6e90": 7813, "\u5916\u56fd\u4eba": 7814, "\u5bb9\u6613": 7815, "\u8bb8\u591a\u56fd\u5bb6": 7816, "\u2581projected": 7817, "\u79fb\u5f99\u8005": 7818, "\u2581conjunction": 7819, "\u5e76\u5c31": 7820, "\u2581properly": 7821, "om": 7822, "\u2581realize": 7823, "\u65f6\u95f4\u8868": 7824, "\u2581contingent": 7825, "\u75db": 7826, "\u662f\u6839\u636e": 7827, "end": 7828, "\u4e92\u8054\u7f51": 7829, "\u2581overview": 7830, "\u5c3d\u65e9": 7831, "\u6e38": 7832, "\u9648\u8ff0": 7833, "\u7684\u9650\u5236": 7834, "\u2581Based": 7835, "\u83b7\u5f97\u901a\u8fc7": 7836, "\u9879\u76ee\u5385": 7837, "\u9577": 7838, "\u258177.": 7839, "\u2581subparagraph": 7840, "\u52a0\u6c99": 7841, "\u2581village": 7842, "ham": 7843, "\u97e6": 7844, "\u2581Malta": 7845, "\u90a6": 7846, "\u2581Ra": 7847, "\u2581Drug": 7848, "\u7406\u4e8b\u4f1a\u7b2c": 7849, "\u653f\u5e9c\u548c": 7850, "\u677f": 7851, "\u5f8c": 7852, "\u7d27": 7853, "\u533a\u57df\u5408\u4f5c": 7854, "\u2581vehicle": 7855, "\u8be5\u516c\u7ea6": 7856, "\u5f52": 7857, ".1),": 7858, "\u2581simple": 7859, "/7": 7860, "\u2581\u90a3\u4e9b": 7861, ":\u300a": 7862, "\u2581Yemen": 7863, "\u7b2c\u4e09\u6b21": 7864, "08": 7865, "\u2581\u516d": 7866, "\u2581guaranteed": 7867, "\u8b66\u544a": 7868, "\u2581Land": 7869, "\u300c": 7870, "\u2581Inspection": 7871, "\u7684\u5730\u533a": 7872, "..": 7873, "\u2581submissions": 7874, "\u8c28": 7875, "der": 7876, ".2/": 7877, "\u2581drew": 7878, "\u2581successfully": 7879, "\u548c\u4f60": 7880, "\u9019\u4e9b": 7881, "1373(2001)": 7882, "\u2581biodiversity": 7883, "\u662f\u4e00\u9879": 7884, "\u2581acceptable": 7885, "\u51b2": 7886, "\u519c\u6c11": 7887, "\u6c11\u5175": 7888, "\u7684\u804c\u80fd": 7889, "\u7684\u8ba1\u5212": 7890, "\u2581\u8fd9\u9879": 7891, "\u2581fiscal": 7892, "\u5e74\u5e95": 7893, "\u56fd\u5bb6\u529e\u4e8b\u5904": 7894, "/53/": 7895, "\u2581City": 7896, "\u2581Appeals": 7897, "\u7ade\u4e89\u529b": 7898, "\u2581understood": 7899, "\u6574\u4f53": 7900, "\u83b7\u6089": 7901, "\u6838\u6b66\u5668\u56fd\u5bb6": 7902, "\u5206\u644a": 7903, "\u570b": 7904, "\u2581Among": 7905, "\u2581Procurement": 7906, "\u4e9a\u592a\u7ecf\u793e\u4f1a": 7907, "\u4e00\u573a": 7908, "\u4e86\u55ce": 7909, "\u4eba\u6743\u548c\u57fa\u672c\u81ea\u7531": 7910, "\u6015": 7911, "\u7f16\u5199\u7684": 7912, "\u2581\u201c(": 7913, "ru": 7914, "\u2581stages": 7915, "\u2581assisted": 7916, "\u2581Educational": 7917, "\u5404\u7ec4\u7ec7": 7918, "\u2581commodity": 7919, "\u5b9a\u5c45\u70b9": 7920, "\u7d27\u6025\u60c5\u51b5": 7921, "\u4f9d\u9760": 7922, "\u2581playing": 7923, "\u8fd0\u7528": 7924, "\u7ffb\u8bd1": 7925, "\u5f15": 7926, "\u793a\u8303": 7927, "\u5728\u54ea": 7928, "\u5766\u6851\u5c3c\u4e9a\u8054\u5408\u5171\u548c\u56fd": 7929, "\u544a\u77e5": 7930, "\u53d1\u8d77": 7931, "\u4e0d\u591f": 7932, "\u2581allowing": 7933, "\u2581track": 7934, "\u6781\u4e3a": 7935, "\u5bb6\u4eba": 7936, "\u2581assume": 7937, "\u6761\u6b3e\u8349\u6848": 7938, "\u610f\u8bc6\u5230": 7939, "PC": 7940, "\u4e0d\u8fc7": 7941, "\u7ef4\u6301\u548c\u5e73\u7279\u6d3e\u56e2": 7942, "\u2581IN": 7943, "\u7d66": 7944, "\u53d8\u52a8": 7945, "\u2581professionals": 7946, "\u548c\u7a0b\u5e8f": 7947, "ke": 7948, "\u53ef\u9760": 7949, "\u2581hunger": 7950, "\u62a5\u544a\u5458": 7951, "\u884c\u4e3a\u8005": 7952, "\u548c\u76f8\u5173": 7953, "\u2581write": 7954, "\u2581\u7ecf\u6d4e\u53ca\u793e\u4f1a\u7406\u4e8b\u4f1a": 7955, "\u4e0a\u5348": 7956, "\u9ad8\u7ea7\u522b\u4f1a\u8bae": 7957, "\u5011": 7958, "\u2581computer": 7959, "\u2581teaching": 7960, "\u91ce": 7961, "\u5c06\u6765": 7962, "\u2581Say": 7963, "\u7684\u53d7\u5bb3\u8005": 7964, "\u4e4c\u62c9\u572d": 7965, "\u81ea\u6cbb": 7966, "aH": 7967, "\u548c\u4fdd\u62a4": 7968, "\u2581equivalent": 7969, "\u2581meaning": 7970, "}": 7971, "\u2581Standing": 7972, "\u662f\u6211\u7684": 7973, "\u5706\u684c\u4f1a\u8bae": 7974, "\u8d1d\u5b81": 7975, "\u4e3a\u57fa\u7840\u7684": 7976, "min": 7977, "\u2581\u5c31\u50cf": 7978, "\u2581denied": 7979, "\u2581recalls": 7980, "\u2581lists": 7981, "\u9610\u8ff0": 7982, "\u575a\u5b9a": 7983, "\u5e38\u8bbe": 7984, "\u2581stock": 7985, "\u8fd8\u9700\u8981": 7986, "\u2581\u90a3\u4e2a": 7987, "\u2581\u54c8": 7988, "\u2581notification": 7989, "\u7d27\u8feb": 7990, "\u8868\u793a\u5173\u6ce8": 7991, "oriented": 7992, "\u672a\u7ecf": 7993, "au": 7994, "ki": 7995, "\u63a2\u7d22": 7996, "\u2581mercury": 7997, "\u2581reliable": 7998, "\u7684\u63d0\u6848": 7999, "\u2581refers": 8000, "\u5341\u4e8c": 8001, "\u2581Resource": 8002, "\u5bf9\u8054\u5408\u56fd": 8003, "\u2581Settlements": 8004, "\u2581claimant": 8005, "\u2581customary": 8006, "\u8463\u4e8b\u4f1a": 8007, "\u56fd\u9645\u6807\u51c6": 8008, "\u2581Transport": 8009, "\u2581signing": 8010, "\u2581lawyers": 8011, "\u51ef": 8012, "\u6293": 8013, "\u52d5": 8014, "\u2581invites": 8015, "\u7236\u4eb2": 8016, "\u5931\u8d25": 8017, "\u2581destroyed": 8018, "\u2581neighbouring": 8019, "\u2581abroad": 8020, "\u5927\u5927": 8021, "\u2581n": 8022, "\u2581harassment": 8023, "\u79d8\u5bc6": 8024, "\u2581Zambia": 8025, "\u2581newly": 8026, "\u62dc": 8027, "\u79d1\u7d22\u6c83\u7279\u6d3e\u56e2": 8028, "\u2581flexibility": 8029, "\u2581coherent": 8030, "\u80fd\u5426": 8031, "\u2581fast": 8032, "\u53bb\u4e86": 8033, "\u2581murder": 8034, "\u7a7a\u7f3a": 8035, "\u2581spent": 8036, "\u7535\u5f71": 8037, "/2007/": 8038, "\u2581Slovakia": 8039, "\u2581completely": 8040, "\u6709\u7740": 8041, "\u2581defenders": 8042, "\u2581thereto": 8043, "\u5df4\u6797": 8044, "\u2581behaviour": 8045, "\u4e39": 8046, "\u5404\u673a\u6784": 8047, "\u2581agents": 8048, "\u8d3e": 8049, "\u2581relative": 8050, "\u5229\u6bd4\u4e9a": 8051, "\u4e0d\u9700\u8981": 8052, "\u4ee5\u652f\u6301": 8053, "\u5f62": 8054, "\u4e0d\u7a33\u5b9a": 8055, "\u6211\u4f1a": 8056, "\u2581tolerance": 8057, "\u2581wall": 8058, "\u2581Interim": 8059, "\u7684\u4f1a\u5458\u56fd": 8060, "\u610f\u5916": 8061, "za": 8062, "\u7ea0\u6b63": 8063, "\u2581Country": 8064, "2008-2009": 8065, "\u5206\u6bb5": 8066, "les": 8067, "\u6b27": 8068, "\u2581corresponding": 8069, "\u2581Evaluation": 8070, "\u2581offers": 8071, "\u6bcf\u4e00\u4e2a": 8072, "\u6c47\u7387": 8073, "\u2581suggestions": 8074, "\u6d3e\u9063": 8075, "\u2581\u81f3\u4e8e": 8076, "so": 8077, "\u2581larger": 8078, "\u7259\u4e70\u52a0": 8079, "ize": 8080, "\u7c7b\u4f3c\u7684": 8081, "\u5e9f\u9664": 8082, "\u683c\u5f0f": 8083, "/2002/": 8084, "\u2581copies": 8085, "\u6392\u9664": 8086, "\u9001\u4ea4": 8087, "\u2581Penal": 8088, "\u7684\u9002\u5f53": 8089, "\u2581Sure": 8090, "\u258178.": 8091, "\u6cbb": 8092, "\u2581\u8bf7\u79d8\u4e66\u957f": 8093, "\u2581\u4f60\u6709": 8094, "\u2581academic": 8095, "\u5bf9\u5987\u5973": 8096, "\u2581transmitting": 8097, "\u2581\u52a0\u62ff\u5927": 8098, "\u2581households": 8099, "\u2581closer": 8100, "\u2581interaction": 8101, "\u7aef": 8102, "\u52b3": 8103, "\u53ef\u4ee5\u5728": 8104, "\u2581\u524d": 8105, "\u6307\u79f0": 8106, "\u665a\u4e0a": 8107, "\u258168": 8108, "\u2581stresses": 8109, "\u8868\u793a\u6b22\u8fce": 8110, "\u5177\u4f53\u7684": 8111, "\u2581scheme": 8112, "\u2581drawing": 8113, "\u2581train": 8114, "\u7f16\u8f91": 8115, "\u679c": 8116, "\u2581sick": 8117, "\u4e89\u8bae": 8118, "\u88ab\u8feb": 8119, "\u54c8\u8428\u514b\u65af\u5766": 8120, "\u8f7d": 8121, "\u5b9e\u65bd\u7684": 8122, "\u2581\u6ca1\u9519": 8123, "\u4ee5\u6b64": 8124, "\u6267\u884c\u60c5\u51b5\u7684": 8125, "\u2581stocks": 8126, "\u793e\u4f1a\u7ecf\u6d4e": 8127, "\u9884\u9632\u548c": 8128, ".20": 8129, "\u9610\u660e": 8130, "\u7ee7\u627f": 8131, "\u5021\u5bfc": 8132, "\u52a0\u5f3a\u4e86": 8133, "\u25811989": 8134, "\u5265\u593a": 8135, "\u771f\u662f": 8136, "\u2581none": 8137, "\u65e5\u8d77": 8138, "\u2581\u6765\u5427": 8139, "\u540c\u6837\u7684": 8140, "\u516c\u62a5": 8141, "\u2581qualified": 8142, "\u7d66\u6211": 8143, "\u4fdd\u5bc6": 8144, "\u2581Recommendations": 8145, "\u90fd\u4f1a": 8146, "\u2581constituted": 8147, "http": 8148, "1980": 8149, "\u2581prejudice": 8150, "\u5bf9\u8c61": 8151, "\u2581Indian": 8152, "\u2581Before": 8153, "\u2581Jesus": 8154, "\u628a\u6211": 8155, "/2001/": 8156, "\u6307\u6570": 8157, "\u2581\u4f60\u4f1a": 8158, ".16": 8159, "\u2581invasion": 8160, "\u5206\u914d\u7ed9": 8161, "(2007": 8162, "\u6839\u636e\u5176": 8163, "\u6b63\u5982": 8164, "\u2581enemy": 8165, "\u2581sovereign": 8166, "\u2581ship": 8167, "\u2581Rio": 8168, "\u2581Albania": 8169, "\u4f5b": 8170, "\u6240\u6709\u7684": 8171, "\u7a46\u65af\u6797": 8172, "\u2581coastal": 8173, "\u97f3": 8174, "\u5e74\u8f7b\u4eba": 8175, "\u2581extrabudgetary": 8176, "\u963f\u5c14\u5df4\u5c3c\u4e9a": 8177, "\u5171\u548c\u56fd\u603b\u7edf": 8178, "\u5341\u5206\u91cd\u8981": 8179, "\u975e\u5e38\u91cd\u8981": 8180, "\u534e": 8181, "\u2581sister": 8182, "\u5f3a\u5236": 8183, "\u2581Similarly": 8184, "\u2581linkages": 8185, ".19": 8186, "\u2581bill": 8187, "1,": 8188, "\u2581Ro": 8189, "\u5f00\u5c55\u5408\u4f5c": 8190, "\u2581breach": 8191, "\u62ab\u9732": 8192, "ot": 8193, "\u5bb3\u6015": 8194, "\u4ec5\u4ec5": 8195, "/6": 8196, "\u2581repatriation": 8197, "\u95dc": 8198, "\u2581secret": 8199, "\u81ea\u8eab": 8200, "\u2581finally": 8201, "\u5347\u7ea7": 8202, "\u6210\u529f\u5730": 8203, "\u2581accomplishments": 8204, "\u258179.": 8205, "\u5177": 8206, "\u2581household": 8207, "\u51b3": 8208, "\u540c\u7b49": 8209, "\u4e5f\u4f1a": 8210, "\u2581\u6211\u4e0d\u662f": 8211, "\u2581\u4f60\u80fd": 8212, "\u2581distinction": 8213, "\u2581buy": 8214, "\u2581German": 8215, "ber": 8216, "\u548c\u673a\u6784": 8217, "\u822a\u7a7a": 8218, "\u5c06\u6709\u52a9\u4e8e": 8219, "\u8fdb\u884c\u5ba1\u67e5": 8220, "\u4eba\u7c7b\u4f4f\u533a": 8221, "\u4e0a\u5e1d": 8222, "\u4e3d": 8223, "\u591a\u6b21": 8224, "\u2581oral": 8225, "/62/": 8226, "\u2581productivity": 8227, "\u759f\u75be": 8228, "\u7684\u8bc1\u636e": 8229, "\u2581witness": 8230, "\u2581sect": 8231, "\u6211\u4eec\u5fc5\u987b": 8232, "ence": 8233, "\u5f53\u4e8b\u4eba": 8234, "\u603b\u6570": 8235, "\u5217\u652f\u6566\u58eb\u767b": 8236, "\u4fc3\u6210": 8237, "\u2581arbitration": 8238, "\u2581conventional": 8239, "\u5f71\u54cd\u7684": 8240, "\u4ee5\u5916\u7684": 8241, "\u542c\u53d6\u4e86": 8242, "\u2581Sahara": 8243, "pa": 8244, "\u2581volume": 8245, "\u548c\u975e\u653f\u5e9c\u7ec4\u7ec7": 8246, "\u80cc": 8247, "\u2581\u6c92\u6709": 8248, "\u6392\u653e\u91cf": 8249, "\u7cbe": 8250, "\u4f46\u5728": 8251, "\u8bf7\u79d8\u4e66\u957f": 8252, "\u63d0\u6848\u56fd": 8253, ".1/": 8254, "\u2581objects": 8255, "\u9002\u5408": 8256, "ji": 8257, "\u2581Help": 8258, "\u9547": 8259, "\u79c1": 8260, "\u2581black": 8261, "\u2581camp": 8262, "hi": 8263, "\u53ec\u96c6": 8264, "\u968f\u7740": 8265, "\u2581Transnational": 8266, "\u4e13\u95e8\u673a\u6784": 8267, "\u7ba1\u7406\u56fd": 8268, "\u592a\u5e73\u6d0b": 8269, "\u8db3": 8270, "\u2581inputs": 8271, "\u2581hazardous": 8272, "\u2581forget": 8273, "\u914d\u5076": 8274, "\u62a5\u9053": 8275, "\u4e0d\u59a8": 8276, "\u2581quickly": 8277, "\u56fd\u9645\u6587\u4e66": 8278, "\u2581assessing": 8279, "\u6cd5\u5f8b\u548c": 8280, "\u2581pregnant": 8281, "\u8feb\u5207\u9700\u8981": 8282, "\u5ba2\u89c2": 8283, "ani": 8284, "\u2581incurred": 8285, "2006-2007": 8286, "\u2581presidential": 8287, "\u4f5c\u4e1a": 8288, "\u7b2c\u56db": 8289, "\u2581anymore": 8290, "\u7684\u6539\u9769": 8291, "\u2581votes": 8292, "\u2581\u5404": 8293, "\u5e97": 8294, "\u2581convinced": 8295, "\u2581composed": 8296, "\u2581evaluate": 8297, "\u2581GEF": 8298, "\u2581strict": 8299, "\u7f3a\u9677": 8300, "\u7075\u6d3b": 8301, "\u8eab\u4e0a": 8302, "Al": 8303, "\u2581Against": 8304, "\u2581\u76ee\u5f55": 8305, "\u67d0": 8306, "\u2581Luxembourg": 8307, "\u6f5c\u529b": 8308, "\u2581facilitation": 8309, "\u2581landlocked": 8310, "\u2581Durban": 8311, "tion": 8312, "\u2581convening": 8313, "\u2581thereon": 8314, "\u4e0d\u5b58\u5728": 8315, "\u7b2c\u4e00\u7ae0": 8316, "\u4e00\u90e8\u5206": 8317, "\u2581\u5c0f\u7ec4": 8318, "50%": 8319, "ung": 8320, "\u53d6\u5f97\u7684\u8fdb\u5c55": 8321, "\u5e76\u52a0\u5f3a": 8322, "\u4fdd\u5065\u670d\u52a1": 8323, "\u6cd5\u5f8b\u63f4\u52a9": 8324, "\u2581explosive": 8325, "\u7684\u5b58\u5728": 8326, "\u8b66\u5b98": 8327, "\u2015\u2015": 8328, "\u2581grants": 8329, "\u2581\u968f\u7740": 8330, "\u2581Latvia": 8331, "\u2581instances": 8332, "\u884c\u653f\u548c": 8333, "\u2581issuance": 8334, "\u8868\u683c": 8335, "\u2581forests": 8336, "\u65f6\u4ee3": 8337, "\u586b\u8865": 8338, "\u2581Pre": 8339, "\u770b\u89c1": 8340, "\u5e74\u4e3a": 8341, "\u4e00\u8d2f": 8342, "\u5927\u4f1a\u4e3b\u5e2d": 8343, "\u9644\u4ef6\u4e8c": 8344, "\u2581\u5168\u7403": 8345, "\u89c4\u5212\u548c": 8346, "\u2581alive": 8347, "\u4e16\u754c\u536b\u751f\u7ec4\u7ec7": 8348, "\u7eb3\u7c73\u6bd4\u4e9a": 8349, "\u559c\u6b61": 8350, "\u4e0d\u5728": 8351, "\u2581phenomenon": 8352, "\u8fd9\u4e9b\u5efa\u8bae": 8353, "\u2581relate": 8354, "\u2581\u8ba9\u6211": 8355, "\u63f4\u5f15": 8356, "\u86cb": 8357, "\u2581renewed": 8358, "\u5b9e\u8df5": 8359, "\u7ecf\u5408\u7ec4\u7ec7": 8360, "\u5728\u6574\u4e2a": 8361, "\u6578": 8362, "\u2581input": 8363, "\u5382": 8364, "\u5404\u7f14\u7ea6\u56fd": 8365, "\u2581enforced": 8366, "\u2581declarations": 8367, "\u4e92\u52a8": 8368, "\u5e87\u62a4": 8369, "\u2581district": 8370, "09": 8371, "\u2581\u6211\u4e0d\u60f3": 8372, "\u2581method": 8373, "\u2581ch": 8374, "\u88c5\u7f6e": 8375, "\u2581package": 8376, "\u7a31": 8377, "pe": 8378, "\u2581\u5404\u56fd": 8379, "\u5a5a": 8380, "\u7684\u6027\u8d28": 8381, "\u2581Investment": 8382, "\u2581trouble": 8383, "\u4f11": 8384, "\u2581sensitive": 8385, "\u2581bed": 8386, "\u52a0\u5267": 8387, "\u7684\u53d8\u5316": 8388, "\u2581Progress": 8389, "\u4e50": 8390, "\u8054\u5408\u56fd\u79d8\u4e66\u5904": 8391, "\u2581Jamahiriya": 8392, "\u7684\u672a\u6765": 8393, "\u2581psychological": 8394, "\u8089": 8395, "\u5efa\u8bbe\u548c\u5e73\u59d4\u5458\u4f1a": 8396, "\u8fa9\u62a4": 8397, "\u2581\u6216\u8005": 8398, "\u6c49": 8399, "treatment": 8400, "\u2581\u5e94\u8be5": 8401, "\u9965\u997f": 8402, "FCCC": 8403, "\u2581\u82e5": 8404, "\u2581facilitated": 8405, "\u2581Which": 8406, "mounted": 8407, "\u2581Every": 8408, "\u2581transitional": 8409, "\u519c\u6751\u5987\u5973": 8410, "\u7b2c\u516d\u6761": 8411, "\u2581evaluations": 8412, "\u2581\u600e\u4e48\u4e86": 8413, "\u4e3a\u5b9e\u73b0": 8414, "\u4efb\u610f": 8415, "\u2581comprising": 8416, "\u7e41\u8363": 8417, "\u2581Emergency": 8418, "\u4e0d\u7ed3\u76df\u8fd0\u52a8": 8419, "\u2581proceeds": 8420, "\u4e5f\u5728": 8421, "\u2581ON": 8422, "\u2581\u4f86": 8423, "\u8bba": 8424, "\u2581Arabic": 8425, "\u52aa": 8426, "\u2581applies": 8427, "\u573a\u6240": 8428, "\u7b2c\u4e09\u65b9": 8429, "\u2581laid": 8430, "\u2581Advancement": 8431, "\u8054\u5408\u56fd\u4eba\u6743\u4e8b\u52a1\u9ad8\u7ea7\u4e13\u5458\u529e\u4e8b\u5904": 8432, "\u2581fulfilment": 8433, "\u662f\u4e0d\u662f": 8434, "\u672c\u4eba": 8435, "\u6211\u5c31": 8436, "\u2581MONUC": 8437, "\u8054\u5408\u56fd\u5728": 8438, "\u4ecd\u5728": 8439, "\u73af": 8440, "\u548c\u5b9e\u65bd": 8441, "\u7684\u5bb6\u5ead": 8442, "\u2581mom": 8443, "\u4fe1\u606f\u7cfb\u7edf": 8444, "mon": 8445, "07": 8446, "\u7684\u73b0\u8c61": 8447, "\u8ba4\u6350": 8448, ".2)": 8449, "\u2581\u59d4\u5458\u4f1a\u5728": 8450, "\u6761\u7684\u89c4\u5b9a": 8451, "\u7684\u73b0\u6709": 8452, "\u7f6e": 8453, "\u2581\u6211\u80fd": 8454, "\u660e\u5929": 8455, "\u2581Migration": 8456, "\u2581responded": 8457, "\u5152": 8458, "ez": 8459, "\u672c\u533a\u57df": 8460, "\u501f": 8461, "\u2581filed": 8462, "\u2581seized": 8463, "\u8d8a\u5357": 8464, "\u53d7\u7406": 8465, "PRST": 8466, "\u7684\u4eba\u53e3": 8467, "\u589e\u52a0\u5230": 8468, "\u8bae\u4e8b\u89c4\u5219": 8469, "tic": 8470, "\u258175": 8471, "\u2581award": 8472, "\u2581fill": 8473, "\u548c\u5b89\u5168": 8474, "\u2581therein": 8475, "\u5e94\u6025": 8476, "\u2581gains": 8477, "\u25812012.": 8478, "\u2581allegedly": 8479, "\u2581Mongolia": 8480, "\u542c\u53d6": 8481, "\u2581harmonization": 8482, "\u2581\u4e34\u65f6\u8bae\u7a0b": 8483, "\u6700\u591a": 8484, "\u2581Nicaragua": 8485, "\u7ea7\u522b": 8486, "\u2581inspection": 8487, "\u6709\u8d23\u4efb": 8488, "\u9ad8\u4e8e": 8489, "\u53ef\u6301\u7eed\u7684": 8490, "\u2581analytical": 8491, "\u5171\u540c\u4f53": 8492, "\u503a\u6743\u4eba": 8493, "\u2581Equal": 8494, "\u63cf\u8ff0": 8495, "\u5bcc": 8496, "\u838e": 8497, "\u64a4\u9500": 8498, "\u2581Within": 8499, "\u6c11\u95f4\u793e\u4f1a\u7ec4\u7ec7": 8500, "\u2581\u4ed6\u8fd8": 8501, "\u2581techniques": 8502, "\u6b27\u6d32\u59d4\u5458\u4f1a": 8503, "\u548c\u76d1\u6d4b": 8504, "\u2581Bar": 8505, "\u7b2c\u4e8c\u4e2a": 8506, "/1999/": 8507, "\u2581\u6211\u4eec\u5fc5\u987b": 8508, "\u601d": 8509, "\u2581slow": 8510, "\u2581wage": 8511, "\u5e2d": 8512, "\u2581et": 8513, "\u672a\u6210\u5e74\u4eba": 8514, "\u7f14\u7ed3": 8515, "\u2581annually": 8516, "\u73fe\u5728": 8517, "\u5047\u8bbe": 8518, "\u258161": 8519, "\u707e\u96be": 8520, "\u00e0": 8521, "RC": 8522, "ik": 8523, "way": 8524, "\u258180.": 8525, "\u5169": 8526, "\u96be\u6c11\u8425": 8527, "pro": 8528, "\u2581continent": 8529, "\u7684\u8d8b\u52bf": 8530, "\u65ad": 8531, "\u6811": 8532, "\u2581\u591a": 8533, "\u5de8\u5927\u7684": 8534, "\u5e93\u5b58": 8535, "\u62c5\u4fdd\u6743": 8536, "\u7814\u7a76\u62a5\u544a": 8537, "\u5165\u5883": 8538, "\u8131": 8539, "\u2581Basel": 8540, "\u6df7": 8541, "\u56fd\u5bb6\u5b89\u5168": 8542, "\u00f6": 8543, "\u2581collect": 8544, "\u79e9\u5e8f": 8545, "\u2581Regarding": 8546, "\u4e16\u754c\u8d38\u6613\u7ec4\u7ec7": 8547, "owned": 8548, "\u54e6": 8549, "\u63d0\u4ea4\u7684\u62a5\u544a": 8550, "\u8c05\u89e3\u5907\u5fd8\u5f55": 8551, "\u51b2\u7a81\u540e": 8552, "\u4f4d\u7f6e": 8553, "\u5c01\u9501": 8554, "\u2581violent": 8555, "\u4e07\u4eba": 8556, "\u2581instructions": 8557, "\u4e4b\u95f4\u7684\u5408\u4f5c": 8558, "\u968f\u65f6": 8559, "\u2581seventh": 8560, "\u2581mention": 8561, "\u2581ratify": 8562, "\u2581\u4f60\u8bf4": 8563, "\u51cf\u5c11\u4e86": 8564, "laundering": 8565, "\u2581Uzbekistan": 8566, "\u2581\u73fe\u5728": 8567, "\u5728\u975e\u6d32": 8568, "22\\": 8569, "\u6301\u4e45": 8570, "zi": 8571, "\u2581testing": 8572, "\u2581disseminate": 8573, "\u4e0d\u884c": 8574, "\u610f\u8bc6": 8575, "\u6709\u4e2a": 8576, "\u83ab\u6851\u6bd4\u514b": 8577, "\u2581vacancy": 8578, "\u4e86\u4e00\u4e9b": 8579, "\u4ed6\u4eec\u5728": 8580, "\u4e00\u9ede": 8581, "\u2581judgement": 8582, "\u2581Ah": 8583, "\u2581balances": 8584, "\u2581platform": 8585, "\u2581Decree": 8586, "\u2581attributable": 8587, "\u2581alternatives": 8588, "\u6d89\u53ca\u5230": 8589, "\u6e2f": 8590, "\u7684\u5c40\u52bf": 8591, "\u2581farmers": 8592, "\u2581\u6211\u89c9\u5f97": 8593, "\u3113": 8594, "\u2581reflecting": 8595, "\u2581Hold": 8596, "\u7279\u522b\u7a0b\u5e8f": 8597, "\u8fde\u7eed": 8598, "\u2581talks": 8599, "\u2581hot": 8600, "\u516c\u8def": 8601, "\u2581\u5ba1\u8bae": 8602, "\u4ee3\u7406": 8603, "\u7684\u603b\u4f53": 8604, "\u2581double": 8605, "\u8bb0\u5f97": 8606, "\u771f\u76f8": 8607, "\u2581incorporate": 8608, "\u6563\u53d1": 8609, "\u5728\u8be5": 8610, "\u52a8\u7269": 8611, "\u2581innovation": 8612, "\u540e\u7684": 8613, "\u2581maritime": 8614, "\u62a5\u544a\u7b2c": 8615, "\u5e76\u4e8e": 8616, "\u2581begun": 8617, "\u2581occur": 8618, "va": 8619, "\u2581expect": 8620, "\u2581Combat": 8621, "\u2581certainly": 8622, "\u5b89\u5168\u7406\u4e8b\u4f1a\u4e3b\u5e2d": 8623, "\u2581bar": 8624, "\u2581mobilize": 8625, "\u25811995,": 8626, "\u2581texts": 8627, "\u800c\u5728": 8628, "\u2581Bill": 8629, "\u751f\u5b58": 8630, "\u76d1\u6d4b\u548c": 8631, "\u2581bound": 8632, "\u6216\u5728": 8633, "\u2581drive": 8634, "\u2581\u8ba9": 8635, "\u7684\u652f\u52a9": 8636, "\u2581regardless": 8637, "\u53ea\u6709\u5728": 8638, "\u2581Once": 8639, "\u2581ban": 8640, "\u7684\u6846\u67b6\u5185": 8641, "\u5988\u5988": 8642, "\u4ee5\u53ca\u4e0e": 8643, "\u67d0\u4e2a": 8644, "\u2581impossible": 8645, "\u2581storage": 8646, "\u2581Building": 8647, "\u94c1": 8648, "\u2581Panama": 8649, "\u63d0\u4f9b\u6709\u5173": 8650, "\u4e0d\u597d": 8651, "\u6c23": 8652, "\u2581class": 8653, "\u516c\u5171\u90e8\u95e8": 8654, "\u2581incident": 8655, "\u5e7f\u64ad": 8656, "\u2581surveys": 8657, "\u2581reportedly": 8658, ".1.": 8659, "\u2581Sa": 8660, "\u2581fell": 8661, "\u836f\u54c1": 8662, "\u2581contractual": 8663, "\u2581Audit": 8664, "\u25818,": 8665, "\u2581schemes": 8666, "\u5927\u578b": 8667, "\u8ba2\u7acb": 8668, "\u2581propose": 8669, "\u7684\u8eab\u4efd": 8670, "\u5f62\u5f0f\u7684": 8671, "\u2581Would": 8672, "\u7565": 8673, "\u63a5\u6536": 8674, "\u2581gets": 8675, "\u59ae": 8676, "\u51b0": 8677, "\u7684\u4e8b\u4ef6": 8678, "\u6761\u548c\u7b2c": 8679, "\u5f3a\u5236\u6027": 8680, "\u2581software": 8681, "\u2581seat": 8682, "\u2581responding": 8683, "\u2581Zimbabwe": 8684, "\u6218\u6597": 8685, "\u4e0d\u6269\u6563": 8686, "\u2581separation": 8687, "\u5c31\u8981": 8688, "\u53d8\u5f97": 8689, "\u2581introducing": 8690, "\u2581\u513f\u7ae5\u57fa\u91d1\u4f1a": 8691, "\u5c0f\u578b": 8692, "\u800c\u5df2": 8693, "\u4e2d\u4e9a": 8694, "\u2581dimensions": 8695, "\u2581machinery": 8696, "\u2581title": 8697, "\u4efb\u7528": 8698, "\u524d\u5357\u65af\u62c9\u592b\u7684\u9a6c\u5176\u987f\u5171\u548c\u56fd": 8699, "\u2581moved": 8700, "\u2581drop": 8701, "SC": 8702, "\u5404\u533a\u57df": 8703, "\u5b89\u5168\u90e8\u961f": 8704, "\u2581Industrial": 8705, "\u2581cold": 8706, "\u2581detail": 8707, "\u2581\u7ecf": 8708, "\u8054\u5408\u56fd\u513f\u7ae5\u57fa\u91d1\u4f1a": 8709, "\u8fd9\u4e9b\u6d3b\u52a8": 8710, "\u2581\u5e0c\u671b": 8711, "\u91d1\u878d\u673a\u6784": 8712, "\u2581Iceland": 8713, "\u66b4": 8714, "\u6d2a\u90fd\u62c9\u65af": 8715, "\u2581negotiating": 8716, "\u8054\u5408\u56fd\u73af\u5883\u89c4\u5212\u7f72": 8717, "\u970d": 8718, "\u7684\u7f6a\u884c": 8719, "\u7684\u6700\u540e": 8720, "\u53f7\u6cd5\u4ee4": 8721, "\u548c\u6587\u5316": 8722, "\u90fd\u80fd": 8723, "uk": 8724, "\u53bb\u5e74": 8725, "\u76f8\u5f53\u4e8e": 8726, "\u5de5\u4f5c\u4eba\u5458\u7684": 8727, "\u2581arrangement": 8728, "\u6b63\u786e": 8729, "\u7684\u6210\u529f": 8730, "\u2581currency": 8731, "\u59d4": 8732, "\u5b78": 8733, "\u7528\u4ee5": 8734, "\u2581accordingly": 8735, "\u5f97\u4e0d\u5230": 8736, "\u2581resolved": 8737, "-3)": 8738, "\u6837": 8739, "\u514d\u53d7": 8740, "\u2581Former": 8741, "\u7684\u89c4\u5219": 8742, "\u8fdd\u80cc": 8743, "\u5305\u5bb9\u6027": 8744, "\u2581Put": 8745, "\u2581reserve": 8746, "\u2581controlled": 8747, "\u7684\u5021\u8bae": 8748, "\u2581\u4e16\u754c": 8749, "\u2581consultants": 8750, "\u2581pollution": 8751, "\u56fa\u5b9a": 8752, "\u6548\u76ca": 8753, "\u662f\u500b": 8754, "\u2581injured": 8755, "\u258181.": 8756, "\u2581organizing": 8757, "\u2581removal": 8758, "\u514d": 8759, "\u6d88\u606f": 8760, "\u2581\u5c0f\u7ec4\u59d4\u5458\u4f1a": 8761, "\u5206\u5b50": 8762, "\u529e\u516c": 8763, "\u2581\u4e0e\u4f1a\u8005": 8764, "\u5b8c\u6210\u4e86": 8765, "\u2581possession": 8766, "\u5b89\u7f6e": 8767, "\u6f5c\u5728": 8768, "\u591a\u6837\u5316": 8769, "\u5dee\u522b": 8770, "\u2581\u5feb\u70b9": 8771, "\u9650": 8772, "\u2581applying": 8773, "\u7b2c\u4e03": 8774, "\u2581lawyer": 8775, "my": 8776, "\u2581define": 8777, "\u2581delays": 8778, "\u8fdb\u53bb": 8779, "\u2581ending": 8780, "\u660e\u786e\u7684": 8781, "963": 8782, "\u2581flexible": 8783, "\u2581notably": 8784, "\u2581Keep": 8785, "\u2581continuation": 8786, "\u5f15\u8d77\u7684": 8787, "\u6253\u51fb\u6050\u6016\u4e3b\u4e49": 8788, "Part": 8789, "ally": 8790, "\u52a9": 8791, "\u4e0d\u9519": 8792, "\u2581pursued": 8793, "\u6700\u8fd1\u7684": 8794, "\u74b6": 8795, "\u2581UNMIK": 8796, "\u2581northern": 8797, "\u5404\u4f4d": 8798, "\u56fd\u5bb6\u4eba\u6743\u673a\u6784": 8799, "ities": 8800, "\u7535\u4fe1": 8801, "/10": 8802, "\u6210\u7ee9": 8803, "\u2581patterns": 8804, "\u8ff7": 8805, "\u9ebb\u70e6": 8806, "\u65e5\u5173\u4e8e": 8807, "\u6bcd": 8808, "\u7684\u6295\u8d44": 8809, "\u5173\u5207\u5730\u6ce8\u610f\u5230": 8810, "\u5356": 8811, "\u9f99": 8812, "\u7684\u4e1a\u52a1": 8813, "ci": 8814, "\u827a\u672f": 8815, "\u6563": 8816, "\u8fc7\u5883": 8817, "\u4e00\u822c\u6027\u8fa9\u8bba": 8818, "\u57f9\u517b": 8819, "\u4f59\u989d": 8820, "az": 8821, "\u2581Montreal": 8822, "\u2581doctor": 8823, "\u7684\u6743\u529b": 8824, "\u2581mutually": 8825, "\u7f57\u9a6c": 8826, "\u4ece\u672a": 8827, "\u2581wastes": 8828, "\u5e76\u4fc3\u8fdb": 8829, "\u4e4c\u5179\u522b\u514b\u65af\u5766": 8830, "\u8981\u53bb": 8831, ")]": 8832, "\u2581cooperative": 8833, "\u2581deeply": 8834, "\"?": 8835, "\u5428": 8836, "\u53f2": 8837, "\u6237": 8838, "2004-2005": 8839, "\u2581hour": 8840, "\u666e\u53ca": 8841, "\u2581transaction": 8842, "\u2581limitations": 8843, "\u800c\u4e14\u8fd8": 8844, "\u5c06\u4e3a": 8845, "\u2581turned": 8846, "\u2581summit": 8847, "(3)": 8848, "\u2581genocide": 8849, "\u91d1\u989d": 8850, "\u2581greatly": 8851, "\u51b3\u7b56\u8005": 8852, "\u8005\u548c": 8853, "\u2581exists": 8854, "\u7684\u90a3\u6837": 8855, "\u2581Estonia": 8856, "\u54cd\u5e94": 8857, "\u65b9\u9762\u53d6\u5f97\u7684\u8fdb\u5c55": 8858, "\u654f\u611f": 8859, "lan": 8860, "\u2581struggle": 8861, "\u963f\u62c9\u4f2f\u5229\u6bd4\u4e9a\u6c11\u4f17\u56fd": 8862, "\u653f\u7b56\u548c\u65b9\u6848": 8863, "\u500d": 8864, "\u2581percent": 8865, "American": 8866, "\u95ee\u8d23": 8867, "\u4eba\u6743\u548c": 8868, "ley": 8869, "\u2581receipt": 8870, "\u2581appreciate": 8871, "\u2581quarter": 8872, "Atomic": 8873, "\u2581sixtieth": 8874, "\u5b89\u7406\u4f1a\u6210\u5458": 8875, "\u2581Relations": 8876, "\u673a\u6784\u7684": 8877, "\u2581presents": 8878, "\u8be5\u7f14\u7ea6\u56fd": 8879, "\u4e0a\u9762": 8880, "dy": 8881, "vis": 8882, "\u4f7f\u4ed6\u4eec": 8883, "\u2581CEDAW": 8884, "\u2581municipal": 8885, "\u7684\u7cbe\u795e": 8886, "\u51c6": 8887, "\u6e2f\u53e3": 8888, ".25": 8889, "\u6279\u6b3e": 8890, "\u2581Benin": 8891, "\u8054\u9ece\u90e8\u961f": 8892, "\u2581Emirates": 8893, "\u590d\u6742\u7684": 8894, "\u4f5c\u51fa\u52aa\u529b": 8895, "5,000": 8896, "\u2581respected": 8897, "\u4eca\u665a": 8898, "\u717d\u52a8": 8899, "\u6210\u6548": 8900, "\u25812015": 8901, "\u2581journalists": 8902, "\u6267\u884c\u79d8\u4e66": 8903, "\u2581allows": 8904, "\u2581telling": 8905, "\u5200": 8906, "\u5e74\u521d": 8907, "\u2581inhuman": 8908, "\u5e72\u4ec0\u4e48": 8909, "\u2581earth": 8910, "\u56fd\u5bb6\u65b9\u6848": 8911, "\u7684\u5bf9\u8bdd": 8912, "\u5e76\u5e94": 8913, "\u2581cruel": 8914, "ful": 8915, "\u2581Capacity": 8916, "\ue6d4": 8917, "\u4eba\u5458\u7684": 8918, "\u65e7": 8919, "RE": 8920, "What": 8921, "\u8f85\u52a9": 8922, "\u6838\u5b9e": 8923, "\u2581yours": 8924, "\u5bf9\u7b56": 8925, "\u2581managing": 8926, "\u2581eligible": 8927, "\u51fa\u552e": 8928, "\u6211\u5728": 8929, "mar": 8930, "\u9996\u5e2d": 8931, "\u4ed6\u8bf4": 8932, "\u2581Facility": 8933, "\u7ef4\u4fee": 8934, "\u5426\u5219": 8935, "\u2581\u827e": 8936, "RES": 8937, "vo": 8938, "\u2581\u5370\u5ea6": 8939, "\u2581formulate": 8940, "\u2581anticipated": 8941, "\u79fb\u52a8": 8942, "\u2581liaison": 8943, "\u6838\u5b9a": 8944, "\u2581\u5929\u554a": 8945, "\u5bf9\u6240\u6709": 8946, "\u5efa\u8bbe\u6027": 8947, "called": 8948, "\u4e0d\u5fc5": 8949,
[...]
